/**
  ******************************************************************************
  * @file    consumption_model_data_params.c
  * @author  AST Embedded Analytics Research Platform
  * @date    2025-02-02T12:24:09+0330
  * @brief   AI Tool Automatic Code Generator for Embedded NN computing
  ******************************************************************************
  * Copyright (c) 2025 STMicroelectronics.
  * All rights reserved.
  *
  * This software is licensed under terms that can be found in the LICENSE file
  * in the root directory of this software component.
  * If no LICENSE file comes with this software, it is provided AS-IS.
  ******************************************************************************
  */

#include "consumption_model_data_params.h"


/**  Activations Section  ****************************************************/
ai_handle g_consumption_model_activations_table[1 + 2] = {
  AI_HANDLE_PTR(AI_MAGIC_MARKER),
  AI_HANDLE_PTR(NULL),
  AI_HANDLE_PTR(AI_MAGIC_MARKER),
};




/**  Weights Section  ********************************************************/
AI_ALIGNED(32)
const ai_u64 s_consumption_model_weights_array_u64[100481] = {
  0xbca745183dd87f58U, 0xbbfbe4a03e67ab87U, 0xbe24439cbe016a0fU, 0x3d0ae4f63df69099U,
  0xbec21f5cbd856dc0U, 0x3d5addc4bd4f9b79U, 0x3e4c5f303be5dab7U, 0xbe6876d83e1b9356U,
  0xbd599f34bdc22810U, 0xbd1139c43e2001d0U, 0x3e15059ebc8622e5U, 0x3cb7cf87bdaf719aU,
  0x3bc6a838be506295U, 0x3dae1f023c8e3546U, 0xb802283bbe014e6eU, 0x3e469f3abe1ad961U,
  0x3ded0d7abd265d3dU, 0xbe4b230a3d3ac86bU, 0xbdbacfa0be08d4b3U, 0x3e659cbb3c0bd640U,
  0xbe324d2e3c87f358U, 0x3e446dcd3d9329dcU, 0xbd347f5fbeba5996U, 0xbe2d8e8d3e7539d2U,
  0xbe39eb94be3e2299U, 0xbe143ba53eac7e5fU, 0x3e5f3ae73bb57c47U, 0x36843d4e3df64ebfU,
  0x3de809bbbd1b3d2bU, 0x3e35d9d6be35947bU, 0xbe355e28be7b4552U, 0x3cd62080be7192c8U,
  0x3e06ba8f3c9f7875U, 0x3e1876093dd6aa47U, 0x3d77dfa4be2581c7U, 0xbe3fbd343e42da50U,
  0xbe6301c1bd1d7fb8U, 0x3b87ae3cbe0ba0a5U, 0xbe5906043e5b1249U, 0xbd59ed503c7d5820U,
  0x3e03dd4dbe324362U, 0xbdd5cf113c3e578dU, 0x3d8624853e5d6f72U, 0xbe4499bbbe776defU,
  0xbb4dd69e3e80b56dU, 0x3de79dc0be7b7b09U, 0x3d48a08fbd826e82U, 0x3d37b7443ce88f2bU,
  0xbd0c852bU, 0x3d5dd295bd3d34b8U, 0xbc96eb81U, 0xbd4fa5dcbd284141U,
  0x3c970842bb605d37U, 0x3c08ea3839ad21edU, 0xbd11f1db00000000U, 0xbc1ddace3dbe422aU,
  0xbc84d2ca3c36cec3U, 0xbcd34376bd281ef1U, 0xbd02c3e800000000U, 0xbd0b100abd0c22efU,
  0xbad7c44200000000U, 0xbc8b623000000000U, 0xbcee6e1cbc9044e4U, 0xbcde325300000000U,
  0x3cfd868f3bfd868fU, 0xbd2e4c823c3e24ebU, 0x3bfd868fbb7d868fU, 0x3cddd5bd00000000U,
  0x3cfd868fbb7d868fU, 0xbd0e9bb0bb7d868fU, 0xbc7d868f3cddd5bdU, 0x3cddd5bdbcddd5bdU,
  0xbc7d868fbcddd5bdU, 0xbc3e24ebbc9e7419U, 0xbb7d868fbcddd5bdU, 0x3d0e9bb0bbfd868fU,
  0x3bfd868f3d0e9bb0U, 0xbc3e24eb3cddd5bdU, 0x3c3e24eb3c9e7419U, 0xbd3e24ebbd1e7419U,
  0x3c3e24eb00000000U, 0xbc9e7419bcbe24ebU, 0x3d2e4c823cddd5bdU, 0x3c3e24ebbbfd868fU,
  0x3b7d868fbc3e24ebU, 0xbc7d868f00000000U, 0xbc9e74193c7d868fU, 0xbcfd868fbc9e7419U,
  0xbc3e24ebbc9e7419U, 0x3c3e24ebbd3e24ebU, 0x3c9e7419bd1e7419U, 0xbcfd868f3c7d868fU,
  0x3bfd868f3d2e4c82U, 0xbd2e4c82bcbe24ebU, 0x3d1e74193cddd5bdU, 0x3cbe24ebbcddd5bdU,
  0x3c9e7419bcbe24ebU, 0x3b7d868fbd1e7419U, 0x3d1e7419bb7d868fU, 0xbd2e4c82bb7d868fU,
  0x3cfd868fbd2e4c82U, 0x3cddd5bd3c3e24ebU, 0xbb7d868f3bfd868fU, 0x3cddd5bd3c9e7419U,
  0xbcddd5bd3c9e7419U, 0x3bfd868fbc3e24ebU, 0xbcbe24eb3cfd868fU, 0x3cfd868fU,
  0x3cbe24eb3cbe24ebU, 0xbcfd868fbcfd868fU, 0xbd2e4c82bcfd868fU, 0xbc7d868f3cddd5bdU,
  0x3c9e7419bd2e4c82U, 0x3b7d868fbcddd5bdU, 0xbc7d868f3cddd5bdU, 0xbb7d868fbbfd868fU,
  0xbc7d868fbd2e4c82U, 0x3c3e24ebbb7d868fU, 0xbb7d868fbbfd868fU, 0x3d0e9bb0bbfd868fU,
  0x3cfd868fbd0e9bb0U, 0x3c3e24ebbcfd868fU, 0x3cddd5bdU, 0x3d1e7419bd1e7419U,
  0x3cbe24eb3d0e9bb0U, 0xbc7d868fbc7d868fU, 0xbbfd868fbcbe24ebU, 0x3cddd5bdbc7d868fU,
  0x3cbe24eb00000000U, 0xbd0e9bb0bd0e9bb0U, 0x3cfd868f00000000U, 0xbcddd5bdU,
  0xbbfd868fU, 0xbd2e4c823cfd868fU, 0x3cddd5bdbcbe24ebU, 0x3c9e74193cfd868fU,
  0x3d1e7419U, 0x3cbe24ebbc9e7419U, 0x3c3e24ebbcfd868fU, 0x3c7d868f3d0e9bb0U,
  0x3b7d868fbd0e9bb0U, 0x0U, 0xbd2e4c823b7d868fU, 0x3d0e9bb03b7d868fU,
  0x3b7d868fbd3e24ebU, 0x3cbe24ebbc7d868fU, 0x3d0e9bb03cfd868fU, 0xbcddd5bd3c3e24ebU,
  0xbd0e9bb03b7d868fU, 0xbbfd868f3c3e24ebU, 0xbc9e74193cfd868fU, 0x3cfd868f3d2e4c82U,
  0xbbfd868f3d1e7419U, 0x3bfd868fbd3e24ebU, 0x3c7d868fbd0e9bb0U, 0x3b7d868f3cddd5bdU,
  0xbbfd868fbbfd868fU, 0xbd1e7419bcddd5bdU, 0xbc3e24ebbd1e7419U, 0xbb7d868f3b7d868fU,
  0x3d0e9bb0bd2e4c82U, 0xbd0e9bb03c9e7419U, 0x3b7d868fbcbe24ebU, 0xbc7d868fU,
  0x3c9e74193cfd868fU, 0xbc3e24eb3c3e24ebU, 0xbc7d868fbc7d868fU, 0xbc9e7419bd0e9bb0U,
  0xbd0e9bb0bcfd868fU, 0x3cfd868fbd3e24ebU, 0xbbfd868f3c7d868fU, 0x3c3e24eb3cddd5bdU,
  0xbcfd868f3c7d868fU, 0xbbfd868fbb7d868fU, 0xbd0e9bb0bd3e24ebU, 0x3c9e74193c3e24ebU,
  0xbcbe24eb3c3e24ebU, 0xbc7d868fbcddd5bdU, 0x3cbe24eb3bfd868fU, 0x3d1e74193cbe24ebU,
  0xbc9e74193c3e24ebU, 0xbcddd5bd3d1e7419U, 0xbcfd868fbbfd868fU, 0x3b7d868f3bfd868fU,
  0xbb7d868f3cfd868fU, 0xbcbe24eb3b7d868fU, 0xbd2e4c82bbfd868fU, 0x3cbe24ebbd4dfd54U,
  0x3cddd5bd3d0e9bb0U, 0xbd1e74193d2e4c82U, 0xbc9e7419bcddd5bdU, 0xbb7d868f3cfd868fU,
  0xbcfd868f3bfd868fU, 0x3d1e7419bcbe24ebU, 0xbc7d868fbc3e24ebU, 0xbcddd5bd3cddd5bdU,
  0xbcfd868f3c3e24ebU, 0xbcfd868fbc7d868fU, 0x3b7d868fbbfd868fU, 0xbb7d868f3d1e7419U,
  0x3cddd5bd00000000U, 0xbcddd5bdbc9e7419U, 0x3cbe24eb3c7d868fU, 0xbbfd868fbc7d868fU,
  0x3d0e9bb0bcddd5bdU, 0x3c7d868fU, 0xbd2e4c82bd3e24ebU, 0xbcddd5bd3cfd868fU,
  0x3d1e741900000000U, 0xbc9e74193c3e24ebU, 0xbb7d868f3c9e7419U, 0x3c3e24eb3cfd868fU,
  0xbd0e9bb03b7d868fU, 0x3c7d868fbd1e7419U, 0xbc9e7419bcbe24ebU, 0x3cfd868fbcbe24ebU,
  0x3d0e9bb0bb7d868fU, 0x3c7d868fbcddd5bdU, 0x3cfd868f3bfd868fU, 0x3b7d868fbd1e7419U,
  0x3cfd868fbc9e7419U, 0x3cfd868f3b7d868fU, 0xbd1e7419bcbe24ebU, 0x3d0e9bb03cfd868fU,
  0xbd0e9bb0bcfd868fU, 0x3b7d868fbd1e7419U, 0xbcfd868f3c3e24ebU, 0xbd3e24eb3c3e24ebU,
  0x3d1e7419bb7d868fU, 0xbcddd5bdbd0e9bb0U, 0xbc3e24eb3cfd868fU, 0x3cfd868fbbfd868fU,
  0xbd2e4c823d2e4c82U, 0xbc9e7419bd3e24ebU, 0xbcddd5bd3cbe24ebU, 0x3c9e74193d0e9bb0U,
  0xbbfd868fbd2e4c82U, 0x3c7d868f3cbe24ebU, 0xbd1e7419bd3e24ebU, 0xbd1e74193cddd5bdU,
  0x3c3e24ebbcbe24ebU, 0xbbfd868fbcfd868fU, 0x3c7d868f3d0e9bb0U, 0xbd3e24ebbcfd868fU,
  0x3d0e9bb000000000U, 0xbd1e7419bd1e7419U, 0xbd2e4c82U, 0xbd1e74193bfd868fU,
  0xbd0e9bb03bfd868fU, 0x3d0e9bb03d0e9bb0U, 0xbd3e24eb3c3e24ebU, 0xbbfd868f3c9e7419U,
  0xbc3e24eb3cfd868fU, 0xbd3e24ebbcddd5bdU, 0x3c3e24ebbbfd868fU, 0x3c7d868fbb7d868fU,
  0xbd1e74193c7d868fU, 0xbd1e7419bd2e4c82U, 0xbcddd5bdU, 0xbcddd5bd3cbe24ebU,
  0x3cddd5bd3c9e7419U, 0xbc9e74193d1e7419U, 0x3cfd868f3b7d868fU, 0xbbfd868f3cfd868fU,
  0x3cbe24eb3c9e7419U, 0xbd0e9bb0bcbe24ebU, 0xbc9e741900000000U, 0xbd0e9bb000000000U,
  0xbc3e24eb3d0e9bb0U, 0xbb7d868fbcbe24ebU, 0xbd1e7419bcfd868fU, 0x3bfd868fbc7d868fU,
  0x3d1e7419bd2e4c82U, 0x3d1e74193c7d868fU, 0xbc7d868fbd1e7419U, 0x3cddd5bd3cbe24ebU,
  0xbb7d868fbcddd5bdU, 0xbd1e7419bcbe24ebU, 0xbcddd5bdU, 0xbbfd868f3c9e7419U,
  0xbc3e24eb3cbe24ebU, 0x3c9e74193bfd868fU, 0x3c3e24eb3cfd868fU, 0xbd0e9bb0bcddd5bdU,
  0xbcfd868fbd1e7419U, 0xbcfd868fU, 0xbc9e74193cbe24ebU, 0x3bfd868fbc9e7419U,
  0x3c9e74193d0e9bb0U, 0x3d2e4c82bcddd5bdU, 0x3cbe24eb3c7d868fU, 0xbc3e24ebbc7d868fU,
  0x3cbe24eb00000000U, 0x3d0e9bb0bd2e4c82U, 0xbd1e7419bbfd868fU, 0x3bfd868fbc9e7419U,
  0xbc3e24ebbc3e24ebU, 0xbd2e4c823cbe24ebU, 0x3cfd868fbcfd868fU, 0xbc7d868f00000000U,
  0x3bfd868fbd0e9bb0U, 0xbc3e24eb3cddd5bdU, 0xbd3e24ebbc3e24ebU, 0x3cfd868fbcbe24ebU,
  0xbcfd868fbcddd5bdU, 0xbcddd5bd3cbe24ebU, 0xbb7d868f3c3e24ebU, 0xbc7d868fbcddd5bdU,
  0x3d0e9bb0U, 0x3d0e9bb03d1e7419U, 0xbc7d868f3cddd5bdU, 0x3d0e9bb0bc3e24ebU,
  0xbd0e9bb0U, 0xbd1e74193cfd868fU, 0x3cddd5bdbd2e4c82U, 0x3bfd868f00000000U,
  0xbd1e7419bc3e24ebU, 0xbd3e24ebbb7d868fU, 0xbbfd868f3d1e7419U, 0xbbfd868f3cbe24ebU,
  0x3d1e7419bcddd5bdU, 0x3b7d868f3c3e24ebU, 0x3d1e74193cfd868fU, 0xbcbe24eb3cddd5bdU,
  0x3c7d868fU, 0x3d0e9bb0bc7d868fU, 0x3cddd5bd3cfd868fU, 0xbb7d868fbd0e9bb0U,
  0xbcfd868f00000000U, 0x3d0e9bb0bd0e9bb0U, 0xbd0e9bb000000000U, 0xbc9e7419bd2e4c82U,
  0x3d0e9bb0bd1e7419U, 0x3b7d868fbcfd868fU, 0xbb7d868fbc7d868fU, 0x3c3e24eb3c7d868fU,
  0x3d2e4c82bcddd5bdU, 0xbd0e9bb03cddd5bdU, 0x3d1e7419bc7d868fU, 0x3b7d868fbcbe24ebU,
  0xbbfd868fbc3e24ebU, 0x3bfd868f3cbe24ebU, 0xbc7d868fbcddd5bdU, 0x3c7d868fbb7d868fU,
  0x3b7d868fbd1e7419U, 0x3cfd868fbbfd868fU, 0x3b7d868f3cbe24ebU, 0xbcbe24ebbbfd868fU,
  0xbbfd868fbb7d868fU, 0xbd2e4c823cfd868fU, 0xbd3e24ebbbfd868fU, 0x3d0e9bb0U,
  0xbc9e74193c3e24ebU, 0xbcfd868f3cfd868fU, 0xbc7d868fU, 0xbd0e9bb0bb7d868fU,
  0x3d2e4c82bc7d868fU, 0xbd2e4c82bc3e24ebU, 0x3c7d868f3c3e24ebU, 0xbd3e24ebbbfd868fU,
  0x3bfd868fbd1e7419U, 0xbcfd868fbcbe24ebU, 0xbd0e9bb03c9e7419U, 0xbd3e24eb3c9e7419U,
  0x3d0e9bb03c9e7419U, 0x3b7d868fbb7d868fU, 0xbcddd5bdbcddd5bdU, 0x3c7d868f00000000U,
  0xbd1e74193cfd868fU, 0xbd2e4c823d1e7419U, 0x3d2e4c82bcfd868fU, 0xbbfd868fbb7d868fU,
  0x3bfd868f3c7d868fU, 0x3cddd5bd3cfd868fU, 0xbcfd868fbb7d868fU, 0x3cbe24eb00000000U,
  0x3cfd868fbcddd5bdU, 0x3cbe24ebbc7d868fU, 0xbd3e24ebbc9e7419U, 0xbcddd5bd3bfd868fU,
  0xbc3e24eb00000000U, 0xbd0e9bb03d0e9bb0U, 0xbcbe24ebU, 0x3cfd868fbcfd868fU,
  0xbb7d868fbc7d868fU, 0xbcbe24eb3c9e7419U, 0xbbfd868f00000000U, 0xbbfd868f3d0e9bb0U,
  0x3c7d868fbd2e4c82U, 0xbcbe24eb3cbe24ebU, 0xbc3e24ebU, 0x3cfd868fbcfd868fU,
  0x3c7d868f3c3e24ebU, 0x3b7d868fbc9e7419U, 0x3c3e24eb3cbe24ebU, 0xbc7d868f3c3e24ebU,
  0x3c7d868f3c7d868fU, 0xbc3e24eb3cddd5bdU, 0x3c7d868fbd2e4c82U, 0x3bfd868fbc9e7419U,
  0x3d2e4c823c9e7419U, 0x3c7d868f3d0e9bb0U, 0xbbfd868f00000000U, 0x3c3e24ebbcddd5bdU,
  0x3cddd5bdbcbe24ebU, 0xbcbe24eb3d0e9bb0U, 0xbd2e4c823cddd5bdU, 0xbbfd868fbcbe24ebU,
  0x3bfd868f00000000U, 0xbd2e4c82bbfd868fU, 0xbcfd868fbb7d868fU, 0x3bfd868fbcddd5bdU,
  0xbc9e7419bc9e7419U, 0xbcbe24ebbd1e7419U, 0xbc9e7419bcfd868fU, 0x3c3e24eb3cfd868fU,
  0x3d1e74193c3e24ebU, 0x3bfd868fbd2e4c82U, 0xbd2e4c823c7d868fU, 0xbbfd868fbb7d868fU,
  0xbb7d868fbcbe24ebU, 0x3d0e9bb0bcbe24ebU, 0xbd1e7419bb7d868fU, 0x3bfd868f3c3e24ebU,
  0xbbfd868f3cfd868fU, 0xbd1e7419bd0e9bb0U, 0x3b7d868fbd2e4c82U, 0x3c9e74193c7d868fU,
  0xbbfd868fbd2e4c82U, 0xbd3e24ebbcddd5bdU, 0xbd1e7419bcddd5bdU, 0x3c3e24eb3d0e9bb0U,
  0xbcddd5bdbb7d868fU, 0x3cfd868fbc9e7419U, 0xbcddd5bd3c9e7419U, 0x3c3e24ebbc7d868fU,
  0x3c3e24eb3d0e9bb0U, 0xbbfd868f3c9e7419U, 0xbcddd5bdbc3e24ebU, 0xbd1e7419bcbe24ebU,
  0x3c7d868fbc3e24ebU, 0x3d0e9bb03cfd868fU, 0x3cbe24eb00000000U, 0xbc9e7419bcbe24ebU,
  0x3c7d868fbd0e9bb0U, 0xbcfd868fbcbe24ebU, 0x3bfd868f3d0e9bb0U, 0xbcddd5bdbb7d868fU,
  0x3d1e7419bd3e24ebU, 0x3bfd868f3cbe24ebU, 0x3cbe24eb3cddd5bdU, 0x3c3e24eb3c3e24ebU,
  0x3d2e4c823bfd868fU, 0xbc3e24eb3d1e7419U, 0xbd2e4c823d0e9bb0U, 0xbc3e24eb00000000U,
  0xbcfd868fbd2e4c82U, 0xbcddd5bdbd0e9bb0U, 0x3cddd5bd3cfd868fU, 0xbc7d868fbd0e9bb0U,
  0x3b7d868f3d1e7419U, 0x3cfd868fbcbe24ebU, 0x3c9e74193cddd5bdU, 0x3cddd5bdbd0e9bb0U,
  0xbc9e7419bcfd868fU, 0xbd0e9bb03cfd868fU, 0x3b7d868fbd2e4c82U, 0xbbfd868f3c9e7419U,
  0xbc9e7419bbfd868fU, 0x3c7d868f3cbe24ebU, 0x3c7d868f3cfd868fU, 0xbc7d868f3bfd868fU,
  0x3cbe24eb3c9e7419U, 0x3c9e7419bc7d868fU, 0x3cbe24ebU, 0xbc7d868fbd0e9bb0U,
  0xbc3e24eb3d1e7419U, 0xbc9e74193c3e24ebU, 0x3c7d868fbd2e4c82U, 0xbd3e24eb3d2e4c82U,
  0xbc9e74193cddd5bdU, 0x3d0e9bb0bcfd868fU, 0xbc9e7419bcfd868fU, 0xbcddd5bd3d0e9bb0U,
  0xbb7d868f3d2e4c82U, 0xbcfd868f3bfd868fU, 0xbc9e7419bd2e4c82U, 0x3cfd868f3b7d868fU,
  0xbc7d868f3c3e24ebU, 0xbd2e4c8200000000U, 0x3cddd5bd3c3e24ebU, 0x3bfd868fbd2e4c82U,
  0x3c9e74193cddd5bdU, 0xbcbe24eb3cddd5bdU, 0x3c9e741900000000U, 0xbd2e4c823d2e4c82U,
  0xbbfd868fbc9e7419U, 0x3bfd868fbcddd5bdU, 0x3cbe24eb3d0e9bb0U, 0x3d0e9bb03cddd5bdU,
  0xbc9e7419bcbe24ebU, 0xbbfd868fbd1e7419U, 0xbcfd868f3cbe24ebU, 0xbcddd5bd3d1e7419U,
  0xbcfd868fbd1e7419U, 0xbcbe24eb3c9e7419U, 0x3cfd868fbcfd868fU, 0xbd3e24ebbd0e9bb0U,
  0xbd2e4c823c7d868fU, 0x3cbe24ebbd1e7419U, 0xbcbe24eb3cfd868fU, 0x3cbe24ebbcfd868fU,
  0x3b7d868f3cddd5bdU, 0x3cddd5bdbd0e9bb0U, 0xbd0e9bb03cfd868fU, 0xbcddd5bdbc3e24ebU,
  0x3bfd868f3c7d868fU, 0x3c9e7419bbfd868fU, 0x3bfd868f3d0e9bb0U, 0x3bfd868fbb7d868fU,
  0x3cfd868f3cddd5bdU, 0xbcddd5bdbcddd5bdU, 0xbc3e24ebbd2e4c82U, 0xbc7d868fbc7d868fU,
  0xbcfd868f3c3e24ebU, 0x3cfd868fbc9e7419U, 0x3b7d868f3d0e9bb0U, 0x3bfd868fbbfd868fU,
  0x3d1e74193c3e24ebU, 0xbc9e741900000000U, 0xbc7d868f3cbe24ebU, 0xbc7d868f00000000U,
  0x3d1e7419bc3e24ebU, 0xbcddd5bdbcfd868fU, 0xbcddd5bdbcddd5bdU, 0xbd3e24eb3c9e7419U,
  0xbd0e9bb03cddd5bdU, 0x3b7d868f3cbe24ebU, 0x3bfd868f3bfd868fU, 0xbd0e9bb03bfd868fU,
  0xbd0e9bb0bbfd868fU, 0x3bfd868fbcfd868fU, 0xbd0e9bb0bcddd5bdU, 0x3c9e74193cbe24ebU,
  0x3cbe24eb3c7d868fU, 0xbd0e9bb0bd2e4c82U, 0x3c9e74193cddd5bdU, 0x0U,
  0xbd0e9bb0bbfd868fU, 0x3cfd868fbd1e7419U, 0xbcbe24ebbbfd868fU, 0xbc9e7419U,
  0xbc9e74193cddd5bdU, 0x3cfd868fbcddd5bdU, 0x3d1e7419bc9e7419U, 0x3cfd868f3bfd868fU,
  0x3cfd868fbc9e7419U, 0xbd3e24eb3c9e7419U, 0xbd0e9bb03b7d868fU, 0x3b7d868fbd0e9bb0U,
  0x3c9e74193d0e9bb0U, 0x3c7d868f3c3e24ebU, 0x3c7d868f3b7d868fU, 0x3cfd868f3cbe24ebU,
  0x3cddd5bdbbfd868fU, 0x3b7d868fbd1e7419U, 0xbd3e24ebbcfd868fU, 0x3d1e74193d0e9bb0U,
  0x3cbe24eb3cbe24ebU, 0x3c9e7419bcfd868fU, 0x3d0e9bb03cbe24ebU, 0x3bfd868fbc7d868fU,
  0x3cfd868fbd0e9bb0U, 0xbb7d868f00000000U, 0x3b7d868f3c3e24ebU, 0xbb7d868fbc9e7419U,
  0x3c3e24eb3c9e7419U, 0xbcddd5bd3cddd5bdU, 0x3bfd868fbd2e4c82U, 0xbbfd868fbbfd868fU,
  0xbbfd868f3b7d868fU, 0x3c3e24eb3cfd868fU, 0xbbfd868fbcddd5bdU, 0xbd4dfd54bbfd868fU,
  0x3cbe24ebbd1e7419U, 0xbd3e24ebbd2e4c82U, 0x3b7d868f3cfd868fU, 0x3c3e24ebbcfd868fU,
  0x3c7d868fbcbe24ebU, 0x3cfd868f3d2e4c82U, 0xbbfd868fbd0e9bb0U, 0x3c3e24ebbc9e7419U,
  0x3c3e24eb3c9e7419U, 0xbd0e9bb000000000U, 0xbb7d868fbc7d868fU, 0x3c9e7419U,
  0xbd2e4c823c3e24ebU, 0x3b7d868fbb7d868fU, 0xbcbe24eb00000000U, 0x3cfd868fbc9e7419U,
  0xbd2e4c8200000000U, 0xbd0e9bb0bcfd868fU, 0xbbfd868fbbfd868fU, 0xbcbe24ebbc9e7419U,
  0xbb7d868fbcbe24ebU, 0xbd2e4c823c9e7419U, 0xbd0e9bb0bc9e7419U, 0xbcfd868fU,
  0xbd1e7419bb7d868fU, 0xbbfd868f3c9e7419U, 0x3d1e74193cddd5bdU, 0xbcddd5bdU,
  0xbcbe24ebbd2e4c82U, 0xbd3e24ebbd1e7419U, 0x3d2e4c82U, 0xbc3e24ebbcbe24ebU,
  0xbd0e9bb03d0e9bb0U, 0xbcbe24ebU, 0xbb7d868fbb7d868fU, 0xbc3e24ebbc7d868fU,
  0xbd1e7419bd1e7419U, 0x3b7d868f3c7d868fU, 0x3cfd868f3bfd868fU, 0x3cddd5bd3b7d868fU,
  0xbcbe24ebbd2e4c82U, 0xbc9e74193d0e9bb0U, 0x3c9e7419bcfd868fU, 0x3cbe24ebbc9e7419U,
  0xbc7d868f00000000U, 0x3c3e24ebbd1e7419U, 0x3c7d868fbcddd5bdU, 0xbbfd868fbd0e9bb0U,
  0x3cddd5bd3bfd868fU, 0x3bfd868fbd1e7419U, 0xbcddd5bdbd1e7419U, 0xbd0e9bb0bd0e9bb0U,
  0x3cbe24eb3cddd5bdU, 0x3c3e24eb3cddd5bdU, 0xbd3e24ebbb7d868fU, 0x3cddd5bdbd1e7419U,
  0x3cddd5bd3cbe24ebU, 0x3c3e24ebbbfd868fU, 0x3c3e24ebbd1e7419U, 0xbd2e4c823bfd868fU,
  0x3d0e9bb03d0e9bb0U, 0xbd3e24eb3c3e24ebU, 0xbb7d868fbc7d868fU, 0xbcfd868f00000000U,
  0x3d0e9bb0bcfd868fU, 0xbd1e7419U, 0xbbfd868fbd0e9bb0U, 0x3c9e74193d0e9bb0U,
  0xbc9e74193bfd868fU, 0x3cfd868fbc7d868fU, 0xbd0e9bb0bcddd5bdU, 0xbbfd868fbc3e24ebU,
  0xbcbe24eb3c7d868fU, 0xbb7d868fbb7d868fU, 0xbc7d868fbd4dfd54U, 0x3b7d868fbd1e7419U,
  0x3c7d868f3d0e9bb0U, 0xbbfd868fU, 0xbcbe24eb3d0e9bb0U, 0x3c7d868fbc3e24ebU,
  0xbcbe24eb3d1e7419U, 0xbb7d868fbd0e9bb0U, 0x3cfd868f3c3e24ebU, 0xbcfd868fbc7d868fU,
  0xbc7d868fbcfd868fU, 0xbcfd868f3c9e7419U, 0x3cbe24ebbcbe24ebU, 0x3d0e9bb03bfd868fU,
  0xbd0e9bb03c3e24ebU, 0x3b7d868fbd0e9bb0U, 0xbcbe24ebbb7d868fU, 0xbc7d868f3cbe24ebU,
  0x3c3e24ebbd0e9bb0U, 0xbbfd868fbcddd5bdU, 0xbcddd5bd3b7d868fU, 0x3c7d868f3b7d868fU,
  0xbcddd5bdbcbe24ebU, 0xbd3e24ebbc7d868fU, 0x3d0e9bb03d0e9bb0U, 0xbcddd5bdbc3e24ebU,
  0x3cddd5bdbc3e24ebU, 0xbcfd868f3d0e9bb0U, 0xbd1e7419bd2e4c82U, 0xbd2e4c82bd1e7419U,
  0x3bfd868f3c3e24ebU, 0xbcddd5bdbc9e7419U, 0x3c9e7419bcddd5bdU, 0xbc7d868f3cfd868fU,
  0x3d0e9bb0bd0e9bb0U, 0x3cddd5bdbc9e7419U, 0xbbfd868f3cddd5bdU, 0x3cfd868fbc9e7419U,
  0xbbfd868fbbfd868fU, 0x3d0e9bb03d0e9bb0U, 0x3b7d868fU, 0xbc3e24eb3cfd868fU,
  0xbc7d868f3c3e24ebU, 0xbcfd868f3bfd868fU, 0xbc7d868f00000000U, 0xbcfd868f3c9e7419U,
  0x3c9e7419bcddd5bdU, 0xbc3e24ebbd1e7419U, 0x3cbe24eb3d0e9bb0U, 0x3c9e74193d0e9bb0U,
  0xbcddd5bd3cbe24ebU, 0x3c7d868f3c9e7419U, 0xbd3e24eb3d0e9bb0U, 0xbd1e7419bcddd5bdU,
  0x3cbe24ebbcddd5bdU, 0x3bfd868f3c3e24ebU, 0xbc3e24ebbcfd868fU, 0xbcfd868f3bfd868fU,
  0xbc7d868fbcbe24ebU, 0x3c9e74193c3e24ebU, 0x3b7d868f3b7d868fU, 0xbcddd5bdbb7d868fU,
  0xbcbe24eb00000000U, 0x3c9e741900000000U, 0xbcddd5bdbd2e4c82U, 0x3d0e9bb0bb7d868fU,
  0xbb7d868fbc7d868fU, 0x3d1e74193d2e4c82U, 0x3cbe24ebbd0e9bb0U, 0x3c7d868f00000000U,
  0xbc7d868fbb7d868fU, 0xbc3e24ebbc3e24ebU, 0x3cddd5bdbcfd868fU, 0x3c7d868fbd4dfd54U,
  0x3d0e9bb03d0e9bb0U, 0x3bfd868f3c3e24ebU, 0x3cddd5bdbb7d868fU, 0xbcbe24eb3c7d868fU,
  0xbcbe24ebbd1e7419U, 0xbb7d868f00000000U, 0x3cbe24eb00000000U, 0x3b7d868fbcddd5bdU,
  0x3cddd5bdU, 0xbc7d868fbcfd868fU, 0xbc3e24eb3cddd5bdU, 0xbc3e24eb3cbe24ebU,
  0x3bfd868fbcbe24ebU, 0xbd1e74193cbe24ebU, 0xbd2e4c823d2e4c82U, 0x3d0e9bb03c9e7419U,
  0xbd3e24eb3c9e7419U, 0x3bfd868fbcbe24ebU, 0x3b7d868f3cbe24ebU, 0xbd2e4c823b7d868fU,
  0x3c9e74193c9e7419U, 0xbcfd868fbcbe24ebU, 0x3c9e74193c9e7419U, 0x3b7d868fbbfd868fU,
  0xbbfd868f00000000U, 0xbd1e7419U, 0x3c9e7419bc3e24ebU, 0xbb7d868fbd1e7419U,
  0x3cddd5bdbc7d868fU, 0xbd1e74193d0e9bb0U, 0xbb7d868f3b7d868fU, 0x3bfd868fbcbe24ebU,
  0x3c9e7419bc9e7419U, 0xbcfd868f3d1e7419U, 0xbcbe24ebbd0e9bb0U, 0x3b7d868fbd1e7419U,
  0x3d1e7419bc3e24ebU, 0xbd1e74193cfd868fU, 0x3d1e74193b7d868fU, 0x3cddd5bdbd1e7419U,
  0xbbfd868fbbfd868fU, 0xbc3e24eb3b7d868fU, 0x3bfd868fbd1e7419U, 0xbd3e24eb3d0e9bb0U,
  0xbc9e7419bd1e7419U, 0xbcddd5bdbd3e24ebU, 0xbbfd868fbd0e9bb0U, 0xbbfd868fbd3e24ebU,
  0xbcbe24ebbbfd868fU, 0x3d0e9bb03c7d868fU, 0xbd0e9bb03cbe24ebU, 0xbbfd868f3b7d868fU,
  0xbc7d868fbd1e7419U, 0x3c9e74193b7d868fU, 0x3cbe24ebbc9e7419U, 0xbcbe24eb3c3e24ebU,
  0xbd1e74193b7d868fU, 0xbc7d868f3cddd5bdU, 0xbcbe24eb3d2e4c82U, 0xbcbe24eb00000000U,
  0xbd1e74193c9e7419U, 0xbd0e9bb0U, 0xbb7d868fbbfd868fU, 0x3cfd868fbd0e9bb0U,
  0x3d1e74193c7d868fU, 0x3cfd868f3c7d868fU, 0xbb7d868fbd2e4c82U, 0xbcddd5bdbb7d868fU,
  0x3d1e74193d0e9bb0U, 0x3cbe24ebbb7d868fU, 0x3d0e9bb0bd0e9bb0U, 0x3b7d868fbbfd868fU,
  0x3c9e7419bb7d868fU, 0x3cbe24ebbd0e9bb0U, 0xbd2e4c823d1e7419U, 0xbc9e7419bcddd5bdU,
  0x3cddd5bdbb7d868fU, 0x3cbe24ebbd0e9bb0U, 0x3c7d868f3cfd868fU, 0x3d0e9bb0U,
  0xbc3e24eb3d0e9bb0U, 0xbd1e74193c7d868fU, 0x3d0e9bb0bd2e4c82U, 0x3c9e7419bc3e24ebU,
  0xbbfd868fbcfd868fU, 0xbc3e24eb3d0e9bb0U, 0xbd1e7419bcbe24ebU, 0xbcbe24ebbc3e24ebU,
  0xbc9e74193d1e7419U, 0x3bfd868f3c7d868fU, 0xbbfd868fbc9e7419U, 0x3cddd5bd3cbe24ebU,
  0x0U, 0xbc9e7419bd3e24ebU, 0x3bfd868fbd1e7419U, 0xbd0e9bb0bc9e7419U,
  0xbc7d868fbcfd868fU, 0xbd1e7419bbfd868fU, 0x3c7d868f3cfd868fU, 0xbc7d868fbcddd5bdU,
  0x3d0e9bb03cbe24ebU, 0x3d1e7419bbfd868fU, 0xbc9e74193d0e9bb0U, 0x3cbe24ebbd4dfd54U,
  0x3d0e9bb0bc9e7419U, 0xbcfd868fbc7d868fU, 0xbb7d868f3cfd868fU, 0xbd2e4c82bd2e4c82U,
  0xbd2e4c823cbe24ebU, 0x3bfd868f3cbe24ebU, 0x3cddd5bdbd1e7419U, 0x3cbe24eb00000000U,
  0xbcfd868fU, 0xbb7d868fbc3e24ebU, 0x3d0e9bb03c9e7419U, 0x3c7d868f3c3e24ebU,
  0x3d0e9bb0bd3e24ebU, 0xbd0e9bb0bbfd868fU, 0xbd1e7419bc9e7419U, 0xbcddd5bd3cfd868fU,
  0xbb7d868f3cddd5bdU, 0xbd2e4c82bd2e4c82U, 0xbd0e9bb0bbfd868fU, 0x3bfd868f3cbe24ebU,
  0x3c9e7419U, 0xbc9e7419bd2e4c82U, 0x3c3e24ebbcfd868fU, 0x3cbe24ebbc7d868fU,
  0xbd2e4c82bd2e4c82U, 0x3c7d868fbb7d868fU, 0x3b7d868f3cbe24ebU, 0x3bfd868fbcddd5bdU,
  0x3c7d868fbc9e7419U, 0xbcfd868f3b7d868fU, 0xbc3e24ebbd0e9bb0U, 0xbd1e7419bb7d868fU,
  0x3d0e9bb0bd2e4c82U, 0xbb7d868fbbfd868fU, 0x3cfd868fbc9e7419U, 0xbcddd5bd3cbe24ebU,
  0xbd1e7419bd0e9bb0U, 0xbd0e9bb0bd1e7419U, 0xbd3e24ebbcddd5bdU, 0xbc3e24ebbcddd5bdU,
  0xbcbe24ebbc7d868fU, 0x3c7d868f3c3e24ebU, 0xbcbe24ebbcfd868fU, 0xbcfd868f3cbe24ebU,
  0xbd0e9bb03c7d868fU, 0x0U, 0x3c7d868fbd2e4c82U, 0x3cbe24eb3c3e24ebU,
  0xbd0e9bb0U, 0xbcfd868f3cbe24ebU, 0x3c7d868fbc7d868fU, 0xbb7d868fbd3e24ebU,
  0x3b7d868f3c7d868fU, 0x3c7d868f3c7d868fU, 0xbb7d868fbc9e7419U, 0xbcfd868fU,
  0xbd2e4c82bd1e7419U, 0xbd0e9bb03d1e7419U, 0xbc3e24eb3c7d868fU, 0xbd1e74193d2e4c82U,
  0xbc9e741900000000U, 0xbcddd5bd00000000U, 0xbc7d868fU, 0x3c9e74193bfd868fU,
  0x3cddd5bdbc9e7419U, 0xbcfd868fbcfd868fU, 0xbc3e24ebbd0e9bb0U, 0xbc7d868f3c7d868fU,
  0xbcfd868fbc9e7419U, 0xbcfd868fbd2e4c82U, 0x3cfd868f3d1e7419U, 0xbc7d868f3cfd868fU,
  0x3b7d868f3d1e7419U, 0x3cfd868fbcbe24ebU, 0x3b7d868f3cfd868fU, 0x3c7d868f3c9e7419U,
  0x3d2e4c82bd3e24ebU, 0xbcbe24eb3c7d868fU, 0x3cbe24eb3c7d868fU, 0x3cbe24ebbcfd868fU,
  0x3d0e9bb0bc9e7419U, 0xbd1e74193b7d868fU, 0x3cbe24ebbcfd868fU, 0xbd1e74193cddd5bdU,
  0x3d0e9bb03c7d868fU, 0xbd1e7419U, 0x3bfd868f00000000U, 0xbc3e24eb3d0e9bb0U,
  0xbbfd868f3cbe24ebU, 0xbd3e24eb3bfd868fU, 0x3cfd868f3cfd868fU, 0xbb7d868f3cfd868fU,
  0x3c7d868fbd1e7419U, 0xbcddd5bd3c3e24ebU, 0x3c3e24ebbd1e7419U, 0xbd3e24eb3cddd5bdU,
  0x3d1e7419U, 0x3d1e7419bbfd868fU, 0x3c7d868fbcbe24ebU, 0x3cfd868f3b7d868fU,
  0x3c7d868fbd1e7419U, 0xbd2e4c82bbfd868fU, 0xbd3e24ebbc9e7419U, 0xbbfd868f3c9e7419U,
  0xbcfd868fbcfd868fU, 0xbcfd868f3cfd868fU, 0x3c9e74193cfd868fU, 0x3d0e9bb03d2e4c82U,
  0xbd1e74193cbe24ebU, 0xbd0e9bb03d0e9bb0U, 0xbd0e9bb0bc3e24ebU, 0xbd1e7419bcfd868fU,
  0xbc9e7419bcfd868fU, 0xbd1e74193c3e24ebU, 0x3cbe24eb3bfd868fU, 0x3cfd868fbbfd868fU,
  0x3cfd868f3d1e7419U, 0xbcfd868fbbfd868fU, 0xbd1e7419bcddd5bdU, 0xbc9e7419bd3e24ebU,
  0xbcbe24eb3d0e9bb0U, 0xbc7d868f3d0e9bb0U, 0x3cbe24ebU, 0xbd3e24eb00000000U,
  0x3d0e9bb0bcbe24ebU, 0x3c3e24eb3cddd5bdU, 0x3cddd5bd3c3e24ebU, 0xbcbe24eb3bfd868fU,
  0x3cbe24ebbbfd868fU, 0x3d0e9bb000000000U, 0xbbfd868f3bfd868fU, 0xbc3e24eb3cddd5bdU,
  0xbc3e24ebU, 0x3cfd868f3cbe24ebU, 0xbd0e9bb03bfd868fU, 0x3cbe24ebbcbe24ebU,
  0x3c3e24ebbb7d868fU, 0xbbfd868f00000000U, 0xbcbe24eb3b7d868fU, 0xbd3e24ebbbfd868fU,
  0x3d0e9bb0bcbe24ebU, 0xbbfd868f3bfd868fU, 0xbc3e24ebbcbe24ebU, 0xbbfd868fbd3e24ebU,
  0xbcddd5bd3d2e4c82U, 0xbbfd868fbbfd868fU, 0x3bfd868f3bfd868fU, 0xbbfd868fbb7d868fU,
  0x3b7d868f3d0e9bb0U, 0xbd1e74193bfd868fU, 0x3c9e741900000000U, 0xbb7d868f3b7d868fU,
  0x3bfd868f3d0e9bb0U, 0xbbfd868fbd0e9bb0U, 0xbb7d868f3cfd868fU, 0x3cddd5bd3d0e9bb0U,
  0xbd2e4c82bd3e24ebU, 0x3c3e24ebbd0e9bb0U, 0xbd1e74193c9e7419U, 0xbd1e7419bb7d868fU,
  0xbd0e9bb03cfd868fU, 0xbbfd868f3cddd5bdU, 0xbcbe24eb3bfd868fU, 0x3b7d868fbcbe24ebU,
  0x3bfd868f3cfd868fU, 0xbcfd868f3c3e24ebU, 0x3c3e24ebbcddd5bdU, 0x3bfd868fbd0e9bb0U,
  0x3cddd5bdbbfd868fU, 0xbbfd868f3c3e24ebU, 0xbcfd868fbb7d868fU, 0x3b7d868f3b7d868fU,
  0xbc7d868fbcddd5bdU, 0xbd1e7419bd2e4c82U, 0xbb7d868fbcfd868fU, 0x3cddd5bdbc3e24ebU,
  0x3c3e24ebbcddd5bdU, 0x3d1e7419bc3e24ebU, 0xbc9e7419U, 0x3bfd868f3d1e7419U,
  0xbd0e9bb0bd1e7419U, 0x3cbe24ebbb7d868fU, 0x3c7d868fU, 0xbcddd5bdbb7d868fU,
  0x3c3e24eb3c9e7419U, 0x3cddd5bd3c9e7419U, 0xbbfd868f3d0e9bb0U, 0xbcfd868fbd0e9bb0U,
  0x3b7d868f3c9e7419U, 0x3d1e7419bd4dfd54U, 0x3b7d868fbc7d868fU, 0x3c3e24eb3c3e24ebU,
  0x3b7d868f3c3e24ebU, 0xbcddd5bdbc7d868fU, 0xbc3e24ebbcddd5bdU, 0xbd1e7419bc7d868fU,
  0x3cfd868fU, 0x3bfd868fbcddd5bdU, 0x3cbe24ebbb7d868fU, 0x3c9e74193b7d868fU,
  0x3c3e24eb00000000U, 0xbcddd5bd3d2e4c82U, 0x3cfd868fbd2e4c82U, 0x3cbe24eb3c9e7419U,
  0xbbfd868f00000000U, 0x3d1e7419bbfd868fU, 0x3c7d868f3cfd868fU, 0xbc3e24eb3cfd868fU,
  0xbcbe24eb3d1e7419U, 0x3c3e24eb3cddd5bdU, 0xbbfd868f3d2e4c82U, 0x3b7d868fbcfd868fU,
  0xbc3e24ebbc3e24ebU, 0x3cddd5bd3c9e7419U, 0x3b7d868f3cddd5bdU, 0xbd3e24eb3d0e9bb0U,
  0xbc3e24ebbd2e4c82U, 0xbb7d868f3b7d868fU, 0x3c7d868f3b7d868fU, 0xbd0e9bb0bcbe24ebU,
  0xbd1e7419bc3e24ebU, 0xbcbe24eb3d0e9bb0U, 0xbcbe24ebbd3e24ebU, 0xbbfd868fbd2e4c82U,
  0x3bfd868f3c3e24ebU, 0xbd2e4c82bd0e9bb0U, 0xbb7d868f3d1e7419U, 0xbd1e7419bcfd868fU,
  0xbd3e24ebbbfd868fU, 0x3cbe24ebbd1e7419U, 0x3c9e7419bd2e4c82U, 0xbd2e4c82bb7d868fU,
  0xbd3e24ebbcbe24ebU, 0xbc7d868fbcbe24ebU, 0xbc9e7419U, 0xbc3e24ebbb7d868fU,
  0x3d0e9bb0U, 0x3cbe24eb3cfd868fU, 0xbcbe24eb3cfd868fU, 0xbcfd868f3bfd868fU,
  0xbbfd868fbcbe24ebU, 0x3c7d868f3b7d868fU, 0xbc3e24eb3b7d868fU, 0xbb7d868fbcbe24ebU,
  0xbd2e4c823cbe24ebU, 0xbc3e24ebbcfd868fU, 0x3c7d868fbd0e9bb0U, 0x3bfd868fbd2e4c82U,
  0x3cbe24ebbd1e7419U, 0xbcbe24eb3d0e9bb0U, 0x3d0e9bb03c7d868fU, 0xbd3e24eb3c9e7419U,
  0x3d0e9bb0bc7d868fU, 0xbd2e4c82bd0e9bb0U, 0x3c9e74193c7d868fU, 0x3c7d868fbd3e24ebU,
  0x3c9e741900000000U, 0x3cbe24eb3cbe24ebU, 0x3c9e74193cddd5bdU, 0xbc3e24eb3c7d868fU,
  0xbd0e9bb03cfd868fU, 0x3c7d868f3c7d868fU, 0x3cbe24ebbb7d868fU, 0xbd0e9bb000000000U,
  0xbd0e9bb03cfd868fU, 0xbcddd5bd3bfd868fU, 0x3c3e24ebbbfd868fU, 0xbd2e4c82bcbe24ebU,
  0x3c9e74193bfd868fU, 0xbc7d868fbc3e24ebU, 0x3b7d868fbc7d868fU, 0xbc3e24eb3d1e7419U,
  0x3cbe24ebbc3e24ebU, 0x3cbe24ebbd0e9bb0U, 0xbc3e24ebbcbe24ebU, 0x3cbe24ebbc9e7419U,
  0x3c9e7419U, 0x3c9e7419U, 0xbc3e24eb3c9e7419U, 0xbc7d868fbd1e7419U,
  0xbb7d868f00000000U, 0x3d0e9bb03cfd868fU, 0xbcddd5bdbcfd868fU, 0xbcfd868fbb7d868fU,
  0x3cbe24eb3cbe24ebU, 0x3c9e7419bcfd868fU, 0xbb7d868fbcfd868fU, 0x3c7d868f3c9e7419U,
  0x3cbe24ebbd1e7419U, 0xbc9e74193bfd868fU, 0xbd2e4c82bd1e7419U, 0x3d0e9bb0bbfd868fU,
  0xbd0e9bb0bcddd5bdU, 0xbc9e7419bc9e7419U, 0xbd2e4c82bc9e7419U, 0x3bfd868f3bfd868fU,
  0x3b7d868f3cfd868fU, 0x3c3e24ebbc9e7419U, 0xbcbe24eb3c3e24ebU, 0x3cbe24eb3d1e7419U,
  0xbb7d868fbc3e24ebU, 0x3cfd868fbd4dfd54U, 0x3d1e74193c7d868fU, 0x3bfd868fbcbe24ebU,
  0xbbfd868fbc3e24ebU, 0xbc9e74193cbe24ebU, 0xbb7d868f3d1e7419U, 0xbcddd5bd3d0e9bb0U,
  0x3bfd868f3d1e7419U, 0xbb7d868fbcbe24ebU, 0xbd2e4c8200000000U, 0xbcbe24eb3cbe24ebU,
  0xbd0e9bb03cddd5bdU, 0xbcfd868fbd0e9bb0U, 0xbd1e7419bbfd868fU, 0x3c9e7419bb7d868fU,
  0x3cfd868fbd3e24ebU, 0x3b7d868fU, 0x3cbe24ebbbfd868fU, 0x3cddd5bdbd0e9bb0U,
  0xbc3e24eb3cbe24ebU, 0xbc3e24eb3cfd868fU, 0xbd0e9bb03c7d868fU, 0xbcddd5bdbcfd868fU,
  0x3c3e24eb00000000U, 0x3c9e74193c9e7419U, 0xbc9e7419bcbe24ebU, 0xbc7d868fbc7d868fU,
  0x3bfd868f3bfd868fU, 0x3c9e74193b7d868fU, 0xbd2e4c82bcbe24ebU, 0x0U,
  0x3b7d868f3c3e24ebU, 0xbcddd5bd3c7d868fU, 0xbc3e24ebbc7d868fU, 0x3cfd868fbd2e4c82U,
  0xbcbe24ebbbfd868fU, 0x3cbe24ebbcbe24ebU, 0x3cbe24eb3c3e24ebU, 0xbd0e9bb03cfd868fU,
  0xbbfd868fbcbe24ebU, 0x3bfd868f3bfd868fU, 0x3d0e9bb0bb7d868fU, 0xbd1e7419bd3e24ebU,
  0xbcfd868f3b7d868fU, 0x3cfd868fbc7d868fU, 0x3c7d868f3c7d868fU, 0x3cfd868f3c3e24ebU,
  0x3bfd868fbd0e9bb0U, 0xbd0e9bb0bd3e24ebU, 0xbc9e7419bc3e24ebU, 0xbcbe24ebbcbe24ebU,
  0x3d0e9bb0U, 0xbcfd868f3cbe24ebU, 0xbd3e24eb3c9e7419U, 0xbd3e24ebbc7d868fU,
  0xbd2e4c82bbfd868fU, 0xbbfd868fbd1e7419U, 0x3cbe24eb3d1e7419U, 0x3d0e9bb0bd2e4c82U,
  0xbc7d868f3cddd5bdU, 0x3d0e9bb03cfd868fU, 0xbbfd868fbcbe24ebU, 0x3c3e24ebbd0e9bb0U,
  0x3d0e9bb03b7d868fU, 0x3c9e7419bb7d868fU, 0xbc3e24ebbcddd5bdU, 0xbcddd5bd3bfd868fU,
  0xbcbe24ebbd0e9bb0U, 0xbd0e9bb03cddd5bdU, 0xbd0e9bb03c3e24ebU, 0x3c7d868fbd0e9bb0U,
  0xbcbe24ebbcddd5bdU, 0x3c9e74193c9e7419U, 0xbd2e4c82bc7d868fU, 0xbbfd868fbbfd868fU,
  0xbcbe24ebbcddd5bdU, 0x3cbe24eb3c7d868fU, 0xbc7d868fbbfd868fU, 0xbcfd868fbbfd868fU,
  0x3d0e9bb03c3e24ebU, 0xbc9e74193c9e7419U, 0x3d0e9bb03c3e24ebU, 0xbc3e24ebbcddd5bdU,
  0x3d2e4c82bd1e7419U, 0xbd2e4c82bcfd868fU, 0x3c7d868fbb7d868fU, 0xbc9e7419bc9e7419U,
  0xbbfd868fU, 0xbd2e4c82bd3e24ebU, 0x3c7d868f3c7d868fU, 0xbd0e9bb03c7d868fU,
  0x3cbe24eb3c7d868fU, 0xbd3e24eb3d0e9bb0U, 0x3cddd5bd3c7d868fU, 0x3cfd868fbc3e24ebU,
  0xbc7d868fbd1e7419U, 0xbcddd5bd00000000U, 0x3c7d868fbbfd868fU, 0xbcbe24ebbd1e7419U,
  0x3b7d868f3d1e7419U, 0x3b7d868fbd1e7419U, 0x3cfd868fbcddd5bdU, 0x3cfd868f3cbe24ebU,
  0xbc3e24ebbd1e7419U, 0x3cfd868fbd3e24ebU, 0xbd2e4c82bcbe24ebU, 0xbbfd868f3c3e24ebU,
  0x3c3e24ebbd1e7419U, 0x3d1e7419bbfd868fU, 0xbc7d868fbd1e7419U, 0xbd3e24ebbc9e7419U,
  0x3cbe24eb3bfd868fU, 0xbc7d868f3bfd868fU, 0xbc9e7419bb7d868fU, 0xbd0e9bb0bcfd868fU,
  0x3c7d868f3cddd5bdU, 0x3cbe24eb3cddd5bdU, 0x3c9e74193c9e7419U, 0xbcfd868fbd0e9bb0U,
  0x3cbe24eb3c7d868fU, 0x3d1e7419bcbe24ebU, 0xbcbe24eb3bfd868fU, 0xbc7d868f3c7d868fU,
  0x3b7d868f00000000U, 0x3cfd868fbcfd868fU, 0xbcfd868fbc7d868fU, 0xbd3e24eb3bfd868fU,
  0x3c3e24eb3bfd868fU, 0x3bfd868f00000000U, 0x3c9e7419bd2e4c82U, 0x3cfd868fbcfd868fU,
  0x3d0e9bb0bcfd868fU, 0x3c7d868f3d1e7419U, 0x3c3e24ebbd0e9bb0U, 0x3bfd868fbcddd5bdU,
  0x3cddd5bdbbfd868fU, 0xbcfd868f3d0e9bb0U, 0x3c3e24ebU, 0x3d0e9bb03c9e7419U,
  0x3b7d868f3c9e7419U, 0xbc7d868fbd1e7419U, 0xbd0e9bb03c9e7419U, 0x3c3e24ebbc3e24ebU,
  0xbc9e7419bd0e9bb0U, 0x3d1e74193c9e7419U, 0x3c3e24ebbcbe24ebU, 0x3c7d868fbcfd868fU,
  0xbc3e24eb00000000U, 0x3c7d868f3d0e9bb0U, 0xbbfd868f3cfd868fU, 0x3b7d868fbc3e24ebU,
  0xbd0e9bb0bc3e24ebU, 0x3bfd868f00000000U, 0x3c9e74193bfd868fU, 0x3c3e24eb3c3e24ebU,
  0x3d1e74193d0e9bb0U, 0xbc3e24ebbb7d868fU, 0xbd2e4c82bbfd868fU, 0x3d0e9bb0bd0e9bb0U,
  0x3b7d868fbbfd868fU, 0x3d2e4c82bd1e7419U, 0xbbfd868fbcbe24ebU, 0x3c9e7419bc9e7419U,
  0xbb7d868fbcbe24ebU, 0xbcddd5bdbcddd5bdU, 0x3bfd868fbb7d868fU, 0x3c9e7419bb7d868fU,
  0x3cddd5bdU, 0x3cfd868fbc7d868fU, 0xbd3e24ebbcddd5bdU, 0xbb7d868fbcbe24ebU,
  0xbcfd868fbcddd5bdU, 0x3cddd5bdbd0e9bb0U, 0xbd0e9bb0bcddd5bdU, 0xbbfd868fU,
  0x3d2e4c823c7d868fU, 0xbc9e7419bd0e9bb0U, 0x3c7d868f3d0e9bb0U, 0x3c3e24ebbcddd5bdU,
  0xbcddd5bd3bfd868fU, 0xbd3e24eb3d0e9bb0U, 0x3c3e24eb3cddd5bdU, 0x3c3e24ebbd2e4c82U,
  0xbb7d868fbbfd868fU, 0xbcbe24eb3bfd868fU, 0x3c3e24ebbbfd868fU, 0xbcddd5bd3cbe24ebU,
  0xbc7d868f00000000U, 0xbb7d868fbbfd868fU, 0x3d0e9bb0bcddd5bdU, 0xbc9e74193d1e7419U,
  0xbcbe24ebbcfd868fU, 0x3cbe24ebbcfd868fU, 0x3cfd868f3b7d868fU, 0x3cbe24ebbd1e7419U,
  0x3c7d868fbcbe24ebU, 0x3cbe24eb00000000U, 0xbcfd868f3d2e4c82U, 0xbcbe24ebbcbe24ebU,
  0xbd0e9bb0bc7d868fU, 0xbc9e74193cbe24ebU, 0x3cbe24ebbd2e4c82U, 0xbd1e7419bb7d868fU,
  0xbc3e24eb3d1e7419U, 0xbd2e4c82bbfd868fU, 0x3c7d868fU, 0x3cfd868f3cbe24ebU,
  0xbc9e7419U, 0x3cddd5bdbcbe24ebU, 0xbcfd868fbbfd868fU, 0x3cddd5bd3cddd5bdU,
  0xbd0e9bb000000000U, 0xbcbe24ebbcddd5bdU, 0xbd1e74193c3e24ebU, 0x3cddd5bd00000000U,
  0xbc3e24eb3cbe24ebU, 0x3c9e7419bc7d868fU, 0xbd0e9bb03bfd868fU, 0xbc3e24ebbcddd5bdU,
  0x3cbe24ebbcddd5bdU, 0x3cddd5bdbd1e7419U, 0x3bfd868fbd3e24ebU, 0x3c7d868f00000000U,
  0x3c7d868f3cbe24ebU, 0xbc3e24ebbc3e24ebU, 0xbcddd5bdbc3e24ebU, 0xbc7d868f3d0e9bb0U,
  0x3cddd5bd3cfd868fU, 0xbc3e24ebbcddd5bdU, 0xbbfd868f3cbe24ebU, 0xbcbe24eb3bfd868fU,
  0x3cddd5bdbbfd868fU, 0xbd1e74193c3e24ebU, 0xbbfd868f00000000U, 0xbd2e4c823c7d868fU,
  0x3d0e9bb03c3e24ebU, 0x3cbe24eb3cbe24ebU, 0xbd1e7419bc7d868fU, 0xbbfd868fbcfd868fU,
  0x3cbe24ebbd0e9bb0U, 0xbbfd868f3d0e9bb0U, 0x3d2e4c82bcfd868fU, 0x3c9e7419bd3e24ebU,
  0xbcddd5bdbcddd5bdU, 0xbcfd868f3cfd868fU, 0xbc9e7419bcbe24ebU, 0xbd3e24ebbc9e7419U,
  0x3cddd5bdbd2e4c82U, 0xbd0e9bb0bcbe24ebU, 0xbc9e7419bb7d868fU, 0x3cfd868fbb7d868fU,
  0xbcbe24eb3d0e9bb0U, 0xbd2e4c823cbe24ebU, 0x3c7d868fbd1e7419U, 0xbc9e7419bd1e7419U,
  0xbc3e24ebbd3e24ebU, 0x3d1e7419bcddd5bdU, 0x3d2e4c82bd3e24ebU, 0xbcbe24ebbd2e4c82U,
  0x3c9e7419bb7d868fU, 0xbd0e9bb0U, 0x3c9e7419bd0e9bb0U, 0xbc9e7419U,
  0x3c7d868f3cbe24ebU, 0x3cddd5bdbcddd5bdU, 0xbc9e7419U, 0xbd4dfd54bd3e24ebU,
  0x3bfd868fbcddd5bdU, 0xbc9e7419bbfd868fU, 0xbd2e4c82bbfd868fU, 0xbd1e74193d1e7419U,
  0x3c7d868fbc9e7419U, 0x3c7d868fbd0e9bb0U, 0xbc3e24ebbc9e7419U, 0xbd3e24ebbcddd5bdU,
  0xbcbe24ebbbfd868fU, 0x3c7d868f3c7d868fU, 0x3c9e7419bd0e9bb0U, 0xbd1e7419bcfd868fU,
  0xbbfd868fbc3e24ebU, 0x3cddd5bdbc9e7419U, 0x3cddd5bd3cddd5bdU, 0x3c7d868f00000000U,
  0x3bfd868fbbfd868fU, 0xbc7d868fbbfd868fU, 0xbcddd5bd3cbe24ebU, 0xbc3e24eb3cddd5bdU,
  0xbd1e74193d0e9bb0U, 0x3b7d868fbc7d868fU, 0x3c3e24eb3c3e24ebU, 0xbbfd868fbbfd868fU,
  0x3cbe24eb3c7d868fU, 0x3c7d868fbd1e7419U, 0xbc9e74193b7d868fU, 0xbd2e4c82bcddd5bdU,
  0x3cddd5bd3cbe24ebU, 0x3c3e24ebbc9e7419U, 0xbbfd868f3cddd5bdU, 0xbbfd868f3c3e24ebU,
  0xbd1e74193d1e7419U, 0x3c7d868f3d0e9bb0U, 0xbc7d868f3bfd868fU, 0x3c3e24eb3c3e24ebU,
  0xbc3e24eb3cfd868fU, 0xbcbe24ebbbfd868fU, 0xbc3e24ebbbfd868fU, 0xbcbe24ebbcddd5bdU,
  0x3cddd5bdbbfd868fU, 0xbbfd868f00000000U, 0x3d0e9bb0bc9e7419U, 0xbd1e74193cbe24ebU,
  0x3c9e74193d0e9bb0U, 0x3b7d868f3d1e7419U, 0xbcfd868fbd2e4c82U, 0x3c3e24ebbb7d868fU,
  0x3bfd868f3cddd5bdU, 0x3bfd868f3c9e7419U, 0xbbfd868f3cfd868fU, 0xbd2e4c82bcddd5bdU,
  0x3d1e7419bc9e7419U, 0x3cfd868f3bfd868fU, 0x3cbe24eb3b7d868fU, 0x3bfd868fbd3e24ebU,
  0xbd1e74193cfd868fU, 0xbc9e7419bd2e4c82U, 0xbd2e4c82bc7d868fU, 0xbb7d868f3c3e24ebU,
  0xbc9e7419bcfd868fU, 0xbcbe24ebbcddd5bdU, 0x3b7d868f00000000U, 0x3c7d868f3bfd868fU,
  0xbbfd868fbc9e7419U, 0xbc7d868fbb7d868fU, 0x3cbe24ebbcddd5bdU, 0xbcbe24eb3d1e7419U,
  0x3bfd868fbd2e4c82U, 0x3d0e9bb0bc7d868fU, 0x3cbe24ebbd0e9bb0U, 0xbc3e24ebbbfd868fU,
  0xbd1e7419bd1e7419U, 0xbcfd868fbd1e7419U, 0xbb7d868f3d0e9bb0U, 0xbd3e24ebbcfd868fU,
  0x3cddd5bd3bfd868fU, 0xbcbe24ebbc7d868fU, 0xbd2e4c823b7d868fU, 0xbd1e7419bcddd5bdU,
  0x3c9e74193cddd5bdU, 0x3cddd5bd3b7d868fU, 0x3c3e24eb3c7d868fU, 0xbbfd868f3bfd868fU,
  0x3d1e7419bbfd868fU, 0xbd0e9bb03c9e7419U, 0x3cddd5bd00000000U, 0xbbfd868f3b7d868fU,
  0xbcbe24eb3cddd5bdU, 0x3bfd868fbcddd5bdU, 0xbcfd868f3cfd868fU, 0xbd2e4c823cddd5bdU,
  0x3cddd5bdbb7d868fU, 0x3cddd5bdU, 0x3b7d868f3cfd868fU, 0x3d0e9bb03c9e7419U,
  0xbb7d868fbc7d868fU, 0xbcbe24eb3d0e9bb0U, 0xbc9e7419bb7d868fU, 0xbc3e24ebbcbe24ebU,
  0x3bfd868fbb7d868fU, 0xbd0e9bb03cddd5bdU, 0x3cfd868f3cddd5bdU, 0xbcddd5bdU,
  0xbcbe24eb3cbe24ebU, 0xbd1e74193c9e7419U, 0xbcddd5bd3c9e7419U, 0xbc7d868f3cfd868fU,
  0xbc9e74193c3e24ebU, 0xbcbe24eb3c3e24ebU, 0x3cddd5bd00000000U, 0x3b7d868f3c3e24ebU,
  0xbd1e7419U, 0xbcbe24eb3b7d868fU, 0x3b7d868fbb7d868fU, 0x3b7d868f3c3e24ebU,
  0x3c7d868fbd2e4c82U, 0x3cddd5bd3cddd5bdU, 0xbd2e4c82bd3e24ebU, 0x3c3e24ebbd4dfd54U,
  0x3d1e7419bcbe24ebU, 0xbd2e4c82bcfd868fU, 0xbd0e9bb03c3e24ebU, 0x3cbe24eb3c9e7419U,
  0xbbfd868f3d1e7419U, 0xbc9e7419bb7d868fU, 0x3c7d868fbd0e9bb0U, 0xbd3e24ebbbfd868fU,
  0xbb7d868fbd0e9bb0U, 0x3c9e74193d0e9bb0U, 0xbcddd5bdbcbe24ebU, 0xbd3e24ebbc9e7419U,
  0xbbfd868fbcbe24ebU, 0x3cfd868f3c7d868fU, 0xbcbe24ebbc9e7419U, 0xbbfd868fbd2e4c82U,
  0xbbfd868fbcbe24ebU, 0xbbfd868f00000000U, 0x3d0e9bb0bcfd868fU, 0x3c9e74193cbe24ebU,
  0xbb7d868fbd0e9bb0U, 0xbd2e4c82bd1e7419U, 0x3cfd868f3cbe24ebU, 0x3d0e9bb03c9e7419U,
  0xbcddd5bd3d1e7419U, 0xbd0e9bb03c3e24ebU, 0xbcfd868fU, 0x3bfd868fbcddd5bdU,
  0xbc9e7419U, 0xbc7d868f3cddd5bdU, 0xbcddd5bdbbfd868fU, 0x3cfd868fbc7d868fU,
  0x3d0e9bb0bc9e7419U, 0xbb7d868fbcddd5bdU, 0x3c3e24eb3c7d868fU, 0x3c3e24eb3d1e7419U,
  0xbcfd868f3c7d868fU, 0xbd0e9bb0bd0e9bb0U, 0xbd3e24eb3c9e7419U, 0xbcddd5bd3bfd868fU,
  0xbcbe24ebbc9e7419U, 0xbc9e7419bcddd5bdU, 0xbcfd868f3b7d868fU, 0xbcbe24ebbb7d868fU,
  0x3cddd5bd3cfd868fU, 0x3bfd868f3cddd5bdU, 0xbc3e24eb3bfd868fU, 0x3cfd868fbd4dfd54U,
  0x3d1e74193d0e9bb0U, 0x3cfd868fbd0e9bb0U, 0x3cbe24ebbd2e4c82U, 0xbc3e24eb3cbe24ebU,
  0x3bfd868f3b7d868fU, 0xbd2e4c82bd2e4c82U, 0xbcfd868f3cddd5bdU, 0xbcfd868fbd3e24ebU,
  0xbcfd868f3b7d868fU, 0xbd3e24ebbc3e24ebU, 0xbc3e24ebbd2e4c82U, 0x3c7d868fbc3e24ebU,
  0x3cbe24ebbcfd868fU, 0x3cfd868f3d0e9bb0U, 0x3d1e74193c7d868fU, 0xbd3e24ebbc3e24ebU,
  0x3b7d868fbd0e9bb0U, 0xbd3e24eb3cfd868fU, 0xbb7d868fbbfd868fU, 0xbc3e24eb00000000U,
  0xbb7d868f3cbe24ebU, 0xbcddd5bdbcbe24ebU, 0xbc3e24ebU, 0x3d0e9bb03bfd868fU,
  0xbd0e9bb0bc9e7419U, 0x3cfd868fbc9e7419U, 0xbd3e24eb00000000U, 0x3c3e24ebbcddd5bdU,
  0x3d2e4c82bc3e24ebU, 0xbcbe24eb3c3e24ebU, 0xbcbe24ebbcbe24ebU, 0xbc9e7419bd0e9bb0U,
  0xbc9e7419bcbe24ebU, 0x3cbe24ebbb7d868fU, 0xbc9e7419bc3e24ebU, 0xbc7d868fbd1e7419U,
  0xbb7d868f3d0e9bb0U, 0x3b7d868fbb7d868fU, 0xbbfd868f3cddd5bdU, 0x3bfd868fbcbe24ebU,
  0xbcddd5bd3c7d868fU, 0xbc7d868fbc3e24ebU, 0x3b7d868f3c9e7419U, 0xbcddd5bd3c3e24ebU,
  0xbc3e24ebbc7d868fU, 0xbcbe24ebU, 0x3c3e24ebbc7d868fU, 0xbc9e7419bb7d868fU,
  0xbc7d868fbc7d868fU, 0xbd3e24eb3c9e7419U, 0x3bfd868f3cfd868fU, 0xbbfd868f3d0e9bb0U,
  0xbd2e4c823c9e7419U, 0x3cddd5bdU, 0x3cddd5bdbb7d868fU, 0x3c7d868f3cbe24ebU,
  0xbd1e7419bb7d868fU, 0xbcbe24eb3c3e24ebU, 0xbd2e4c82bd3e24ebU, 0x3cddd5bd3d2e4c82U,
  0xbd0e9bb0bcbe24ebU, 0x3dfd868f3b7d868fU, 0xbcfd868f3c7d868fU, 0x3b7d868fbcddd5bdU,
  0xbb7d868fbc3e24ebU, 0x3d1e7419bd2e4c82U, 0x3d0e9bb000000000U, 0xbcbe24ebbc9e7419U,
  0xbd0e9bb0bd2e4c82U, 0x3c9e7419bcbe24ebU, 0x3d1e7419bb7d868fU, 0x3cbe24ebbc7d868fU,
  0x3c3e24eb3d2e4c82U, 0xbcfd868fbd1e7419U, 0xbd3e24ebbc3e24ebU, 0x3d1e74193bfd868fU,
  0x3c3e24eb3d3e24ebU, 0xbdc611203bfd868fU, 0x3d0e9bb03cbe24ebU, 0x3cbe24ebbd0e9bb0U,
  0xbcbe24eb00000000U, 0x3d4dfd543c7d868fU, 0x3d1e74193c9e7419U, 0x3bfd868f3cddd5bdU,
  0xbd0e9bb0bc9e7419U, 0xbc9e741900000000U, 0x3cfd868f3c9e7419U, 0x3d4dfd543cddd5bdU,
  0xbc9e7419U, 0x3cddd5bdbd0e9bb0U, 0x3d1e7419bb7d868fU, 0xbd1e74193d1e7419U,
  0x3d1e7419bbfd868fU, 0xbbfd868f3d3e24ebU, 0x3bfd868fbc9e7419U, 0xbcbe24ebbb7d868fU,
  0xbcbe24eb3cfd868fU, 0xbc3e24ebbc7d868fU, 0xbc7d868fbbfd868fU, 0xbc3e24eb3c3e24ebU,
  0xbc9e74193d2e4c82U, 0x3cddd5bdbc7d868fU, 0x3d0e9bb03d1e7419U, 0xbc9e74193b7d868fU,
  0xbc7d868fbcfd868fU, 0x3c9e7419bcddd5bdU, 0xbc3e24ebbcbe24ebU, 0xbd1e74193bfd868fU,
  0xbcbe24ebbd1e7419U, 0xbd2e4c823d0e9bb0U, 0xbcbe24eb3b7d868fU, 0x3d3e24ebbcfd868fU,
  0xbcbe24ebbd0e9bb0U, 0x3cddd5bdbdae4c82U, 0x3bfd868fbbfd868fU, 0x3bfd868f3cddd5bdU,
  0x3dae4c82U, 0x3cddd5bd3bfd868fU, 0x3d2e4c82bd0e9bb0U, 0xbbfd868f3d0e9bb0U,
  0x3d1e74193c7d868fU, 0x3cbe24ebbcfd868fU, 0xbdcdfd54bcddd5bdU, 0xbcbe24eb3c3e24ebU,
  0x3cfd868f3d0e9bb0U, 0xbe32429d00000000U, 0xbc3e24ebbb7d868fU, 0xbb7d868fbbfd868fU,
  0x3cbe24ebbbfd868fU, 0x3cfd868f3d1e7419U, 0x3d3e24eb3c7d868fU, 0x3d0e9bb000000000U,
  0xbc9e74193d7d868fU, 0xbc3e24eb00000000U, 0x3d0e9bb03cfd868fU, 0xbc7d868fbd2e4c82U,
  0x3d1e74193c9e7419U, 0x3c3e24ebbc7d868fU, 0x3cddd5bdbc7d868fU, 0x3cddd5bd3c7d868fU,
  0x3b7d868fbcfd868fU, 0xbe26604ebd0e9bb0U, 0xbd2e4c82bc7d868fU, 0x3cbe24ebbbfd868fU,
  0xbd1e74193c9e7419U, 0x3b7d868fbc3e24ebU, 0x3c7d868f3d0e9bb0U, 0xbc7d868fU,
  0x3d3e24ebU, 0xbcfd868fbbfd868fU, 0x3c3e24eb3d2e4c82U, 0x3c9e7419bcfd868fU,
  0x3d1e7419bc9e7419U, 0x3c9e7419bcfd868fU, 0xbbfd868f3b7d868fU, 0x3c7d868fbcfd868fU,
  0x3b7d868f3b7d868fU, 0x3d4dfd54bbfd868fU, 0xbc3e24eb3cfd868fU, 0xbd0e9bb0bcfd868fU,
  0xbcddd5bd3cddd5bdU, 0x3c7d868f3c9e7419U, 0xbcfd868fbd0e9bb0U, 0x3c7d868fbb7d868fU,
  0xbcfd868fbcddd5bdU, 0x3d0e9bb000000000U, 0xbd1e74193c7d868fU, 0x3bfd868f3b7d868fU,
  0xbbfd868f3c3e24ebU, 0xbcbe24ebbbfd868fU, 0xbcddd5bd3cbe24ebU, 0x3c7d868f3d1e7419U,
  0x3cbe24ebbcbe24ebU, 0x3d8e9bb0bb7d868fU, 0x3bfd868f3cfd868fU, 0xbc7d868f3c9e7419U,
  0xbd5dd5bd3c7d868fU, 0x3b7d868fbd7d868fU, 0xbd0e9bb03d1e7419U, 0xbcfd868f00000000U,
  0x3c7d868fbcfd868fU, 0xbbfd868f3c9e7419U, 0xbcfd868fbcfd868fU, 0xbd0e9bb03c3e24ebU,
  0xbd3e24eb00000000U, 0xbd1e7419bbfd868fU, 0xbc3e24ebbcfd868fU, 0xbcfd868fbd1e7419U,
  0x3d0e9bb03c9e7419U, 0xbd9687e53c7d868fU, 0x3c7d868f3c7d868fU, 0x3c7d868fbd2e4c82U,
  0xbb7d868fbc3e24ebU, 0x3d0e9bb03d0e9bb0U, 0xbbfd868f3d0e9bb0U, 0xbb7d868fbb7d868fU,
  0xbcfd868fbc3e24ebU, 0x3cddd5bd3cfd868fU, 0xbb7d868fbb7d868fU, 0xbcbe24eb3b7d868fU,
  0xbc7d868fbb7d868fU, 0x3d0e9bb03bfd868fU, 0xbb7d868f3c7d868fU, 0xbcbe24eb3c9e7419U,
  0xbcfd868f3cddd5bdU, 0xbbfd868fbc9e7419U, 0xbc9e7419bcfd868fU, 0x3c9e741900000000U,
  0xbbfd868f3cddd5bdU, 0xbc3e24eb3bfd868fU, 0x3cddd5bd3d1e7419U, 0xbc9e74193d3e24ebU,
  0xbd5dd5bdU, 0xbb7d868fbd0e9bb0U, 0x3d2e4c823b7d868fU, 0x3d1e74193d2e4c82U,
  0xbb7d868fbd0e9bb0U, 0xbc7d868f3cfd868fU, 0xbc3e24ebbcbe24ebU, 0xbb7d868fbc7d868fU,
  0x3cddd5bd3cbe24ebU, 0x3d7d868f3cddd5bdU, 0x3bfd868fU, 0xbb7d868f00000000U,
  0x3d3e24ebbd1e7419U, 0xbb7d868fbbfd868fU, 0xbd0e9bb0bcfd868fU, 0xbd2e4c823d2e4c82U,
  0xbc9e7419bbfd868fU, 0xbd1e7419U, 0x3cddd5bdbc9e7419U, 0x3c9e74193d3e24ebU,
  0xbb7d868f3d2e4c82U, 0x3c9e7419bbfd868fU, 0xbc7d868f3c9e7419U, 0x3cfd868fbc7d868fU,
  0x3b7d868fbd2e4c82U, 0x3db638b7bd1e7419U, 0x3cfd868fbbfd868fU, 0xbbfd868fbc7d868fU,
  0x3c7d868f3c3e24ebU, 0xbcfd868f3d3e24ebU, 0x3b7d868f3cddd5bdU, 0x3b7d868f3cbe24ebU,
  0x3c9e7419bcbe24ebU, 0x3bfd868fbcfd868fU, 0x3cbe24eb3c9e7419U, 0x3c9e7419bc9e7419U,
  0x3d0e9bb03c9e7419U, 0x3c7d868f3cbe24ebU, 0x3bfd868f3d1e7419U, 0x3c3e24eb3d1e7419U,
  0xbd2e4c82bcbe24ebU, 0xbdf59a5bbcddd5bdU, 0xbcbe24eb3bfd868fU, 0x3bfd868fbd2e4c82U,
  0xbc9e74193d1e7419U, 0x3d0e9bb0bd7d868fU, 0x3d4dfd54bc3e24ebU, 0x3d3e24eb00000000U,
  0xbd2e4c823cddd5bdU, 0x3bfd868f3d1e7419U, 0xbc7d868f00000000U, 0x3cddd5bdbc9e7419U,
  0x3cbe24ebbc9e7419U, 0xbd0e9bb0bbfd868fU, 0xbbfd868fbb7d868fU, 0xbd0e9bb0bc3e24ebU,
  0x3cddd5bd3d1e7419U, 0x3e3e24eb3d0e9bb0U, 0x3d0e9bb0bd0e9bb0U, 0xbd1e7419U,
  0x3bfd868fbc9e7419U, 0x3dae4c82bcbe24ebU, 0x3bfd868fbd1e7419U, 0xbb7d868f3cddd5bdU,
  0x3d0e9bb0bd4dfd54U, 0xbcfd868f3d0e9bb0U, 0x3cfd868fbcddd5bdU, 0x3d1e7419bd0e9bb0U,
  0x3c3e24ebbc7d868fU, 0xbc7d868f3bfd868fU, 0x3c9e74193cbe24ebU, 0x3c3e24eb3b7d868fU,
  0x3c7d868f3d2e4c82U, 0xbd5dd5bdbd0e9bb0U, 0xbcfd868fbcbe24ebU, 0xbd0e9bb0bc9e7419U,
  0x3c7d868f3cddd5bdU, 0x3bfd868fbd5dd5bdU, 0xbcbe24eb3c9e7419U, 0xbbfd868fbd7d868fU,
  0xbcfd868f3c3e24ebU, 0xbcbe24ebbb7d868fU, 0xbd0e9bb0bd1e7419U, 0xbc9e7419bcfd868fU,
  0xbc9e7419bcddd5bdU, 0x3d1e74193c9e7419U, 0xbcfd868fbcfd868fU, 0x3d2e4c823b7d868fU,
  0x3d0e9bb0bcfd868fU, 0x3c9e74193cbe24ebU, 0x3bfd868f3cddd5bdU, 0xbcddd5bdbbfd868fU,
  0xbd5dd5bdbc3e24ebU, 0x3bfd868f3d86af7cU, 0xbcbe24ebU, 0x3d6dae26bc7d868fU,
  0xbd0e9bb0bc7d868fU, 0x3d1e7419bd3e24ebU, 0x3cfd868fbc7d868fU, 0x3d2e4c82bb7d868fU,
  0xbc9e74193bfd868fU, 0xbc9e74193c7d868fU, 0xbc9e74193c9e7419U, 0xbb7d868fbc9e7419U,
  0x3c9e74193cbe24ebU, 0x3cbe24eb3cddd5bdU, 0xbcddd5bdbd0e9bb0U, 0x3cddd5bd3d2e4c82U,
  0x3d2e4c82bcddd5bdU, 0x3d9e741900000000U, 0xbc9e7419bcfd868fU, 0xbcddd5bd3c7d868fU,
  0xbd1e7419U, 0xbcddd5bdbc7d868fU, 0xbc9e7419bc3e24ebU, 0xbcbe24ebbb7d868fU,
  0x3cddd5bd3c3e24ebU, 0x3cddd5bd3cbe24ebU, 0x3c3e24eb3c3e24ebU, 0x3cbe24eb3cddd5bdU,
  0x3cddd5bd3d1e7419U, 0x3d8e9bb03bfd868fU, 0xbc3e24eb3b7d868fU, 0x3d0e9bb03d1e7419U,
  0x3c9e74193d1e7419U, 0xbcbe24eb3d1e7419U, 0x3b7d868f3d0e9bb0U, 0x3c3e24ebbbfd868fU,
  0xbcbe24ebbd0e9bb0U, 0xbc7d868f3bfd868fU, 0x3d0e9bb0bcddd5bdU, 0x3cddd5bdbb7d868fU,
  0x3d7d868f3d1e7419U, 0x3d2e4c82U, 0xbb7d868f3c3e24ebU, 0x3c3e24ebbd2e4c82U,
  0x3cfd868f3cddd5bdU, 0xbbfd868fbc3e24ebU, 0x3c7d868fbcbe24ebU, 0x3d0e9bb0U,
  0x3d1e74193cbe24ebU, 0x3bfd868fU, 0xbc9e7419bd2e4c82U, 0x3c3e24ebU,
  0xbc9e74193cbe24ebU, 0x3bfd868f3c7d868fU, 0xbd2e4c823c3e24ebU, 0xbc9e7419bd0e9bb0U,
  0x3cfd868f3d1e7419U, 0xbd2e4c823c3e24ebU, 0x3cddd5bdbd1e7419U, 0xbc3e24eb3d2e4c82U,
  0x3bfd868f3d0e9bb0U, 0xbdcdfd543c9e7419U, 0x3c3e24eb00000000U, 0x3b7d868fbcddd5bdU,
  0x3c3e24eb3cfd868fU, 0xbcbe24eb3d9e7419U, 0x3c9e7419bc7d868fU, 0x3b7d868f3b7d868fU,
  0x3c3e24ebbcddd5bdU, 0x3bfd868fbcddd5bdU, 0x3cfd868f3c3e24ebU, 0xbc7d868fbbfd868fU,
  0x3c3e24ebbd2e4c82U, 0x3cddd5bdbcddd5bdU, 0x3d7d868fbd2e4c82U, 0xbb7d868fbcfd868fU,
  0xbc9e74193bfd868fU, 0x3d2e4c823cbe24ebU, 0xbbfd868f3bfd868fU, 0x3c3e24ebbd1e7419U,
  0xbbfd868f3cfd868fU, 0xbc7d868f3d4dfd54U, 0xbc9e74193c7d868fU, 0xbd0e9bb03c3e24ebU,
  0xbcbe24ebbcddd5bdU, 0x3c3e24eb3c7d868fU, 0xbcddd5bd3c7d868fU, 0x3cfd868f3bfd868fU,
  0xbc3e24ebbbfd868fU, 0x3bfd868f3c9e7419U, 0x3bfd868fbc9e7419U, 0x3d1e74193cbe24ebU,
  0xbd0e9bb0bcddd5bdU, 0xbd3e24eb3cddd5bdU, 0x3cfd868fbd0e9bb0U, 0xbc3e24ebbb7d868fU,
  0x3c3e24ebbbfd868fU, 0x3cfd868f3b7d868fU, 0xbcfd868fbcbe24ebU, 0xbd0e9bb03cbe24ebU,
  0xbc9e74193d86af7cU, 0xbc9e7419bd1e7419U, 0x3bfd868fbb7d868fU, 0xbd0e9bb03c9e7419U,
  0xbc9e7419bb7d868fU, 0xbcbe24ebU, 0x3bfd868f00000000U, 0xbd1e74193cbe24ebU,
  0xbb7d868f3cbe24ebU, 0xbd86af7c3d1e7419U, 0x3b7d868fbd1e7419U, 0x3cfd868f3c3e24ebU,
  0x3b7d868fU, 0x3d4dfd543da6604eU, 0xbc9e74193d1e7419U, 0xbcddd5bd3c7d868fU,
  0xbc7d868f3d2e4c82U, 0xbd0e9bb03d1e7419U, 0xbc9e74193b7d868fU, 0xbc7d868fbcddd5bdU,
  0xbd2e4c82bc3e24ebU, 0x3c9e74193cfd868fU, 0x3cbe24eb3cfd868fU, 0x3d1e7419bd2e4c82U,
  0x3d1e74193cddd5bdU, 0xbd5dd5bdbd0e9bb0U, 0xbb7d868fbcbe24ebU, 0x3d1e74193cddd5bdU,
  0xbb7d868fbcddd5bdU, 0x3cddd5bd3b7d868fU, 0xbbfd868f3d1e7419U, 0xbcddd5bdbd1e7419U,
  0xbc3e24ebbd6dae26U, 0x3c3e24eb3d0e9bb0U, 0xbcddd5bdbd1e7419U, 0xbc3e24eb3d0e9bb0U,
  0x3bfd868fbc9e7419U, 0xbd3e24ebbc9e7419U, 0x3cbe24eb3bfd868fU, 0xbd2e4c823d0e9bb0U,
  0x3cddd5bdbbfd868fU, 0x3db638b7bcddd5bdU, 0x3c9e74193c9e7419U, 0xbc9e74193d2e4c82U,
  0x3d4dfd543cddd5bdU, 0xbc3e24ebbb7d868fU, 0xbc3e24ebbcfd868fU, 0x3b7d868f3bfd868fU,
  0xbb7d868fbb7d868fU, 0xbc7d868f3cddd5bdU, 0x3c7d868f00000000U, 0x3cbe24eb3cfd868fU,
  0x3d9687e53c3e24ebU, 0xbbfd868f3c3e24ebU, 0x3d3e24ebbc3e24ebU, 0x3cbe24ebbcfd868fU,
  0xbb7d868fU, 0xbc7d868fbb7d868fU, 0x3cfd868fU, 0x3b7d868f3c7d868fU,
  0x3d2e4c823d0e9bb0U, 0x3c3e24eb3d7d868fU, 0x3d1e74193cbe24ebU, 0x3d0e9bb03d3e24ebU,
  0xbcddd5bdbd3e24ebU, 0x3c9e7419bb7d868fU, 0x3d1e7419bcfd868fU, 0xbc9e74193b7d868fU,
  0x3cfd868f3cddd5bdU, 0xbbfd868f3cbe24ebU, 0x3c3e24ebbbfd868fU, 0xbcddd5bd3cddd5bdU,
  0x3cddd5bdbcbe24ebU, 0x3cddd5bdbcfd868fU, 0x3cbe24ebbc3e24ebU, 0x3cbe24ebbcfd868fU,
  0xbc3e24eb3bfd868fU, 0xbd0e9bb03d6dae26U, 0xbd0e9bb03cbe24ebU, 0xbcddd5bd3b7d868fU,
  0xbb7d868fbb7d868fU, 0xbb7d868fbc7d868fU, 0x3c7d868f3bfd868fU, 0xbd0e9bb0bd2e4c82U,
  0xbb7d868fU, 0x3d1e7419bcfd868fU, 0x3cddd5bdbd0e9bb0U, 0xbc7d868fbd2e4c82U,
  0xbc7d868f3c3e24ebU, 0xbd4dfd54bc9e7419U, 0xbbfd868fbcddd5bdU, 0x3d0e9bb03c7d868fU,
  0xbcbe24eb3c3e24ebU, 0x3d0e9bb0bd0e9bb0U, 0xbc9e74193cfd868fU, 0x3c9e74193d4dfd54U,
  0x3bfd868fbd4dfd54U, 0xbd1e7419bd0e9bb0U, 0xbbfd868f3d1e7419U, 0x3bfd868fbcfd868fU,
  0x3cddd5bd3d2e4c82U, 0xbc3e24eb3cbe24ebU, 0xbcddd5bd3cddd5bdU, 0xbd1e7419bcfd868fU,
  0xbd0e9bb000000000U, 0xbcddd5bdbc7d868fU, 0x3b7d868f3d1e7419U, 0x3bfd868f3c3e24ebU,
  0xbbfd868f3c7d868fU, 0x3d9687e53c7d868fU, 0xbb7d868f3d0e9bb0U, 0x3cddd5bdbc3e24ebU,
  0x3bfd868f3bfd868fU, 0xbcddd5bdbd3e24ebU, 0x3c9e7419U, 0x3b7d868fbd0e9bb0U,
  0x3c7d868f3b7d868fU, 0x3d0e9bb03d0e9bb0U, 0x3d2e4c82bd2e4c82U, 0xbc3e24ebU,
  0x3d0e9bb03bfd868fU, 0xbbfd868f3cddd5bdU, 0x3d1e74193d1e7419U, 0x3c3e24ebbd1e7419U,
  0x3bfd868f00000000U, 0xbcbe24eb3d9687e5U, 0x3c9e7419bcddd5bdU, 0x3cbe24eb3cbe24ebU,
  0xbd2e4c823d86af7cU, 0xbcddd5bd3bfd868fU, 0xbcfd868fbcddd5bdU, 0x3cddd5bdbcddd5bdU,
  0x3c7d868f3cfd868fU, 0x3cddd5bd3cddd5bdU, 0x3b7d868f3c3e24ebU, 0xbbfd868fbd0e9bb0U,
  0x3bfd868f3d1e7419U, 0xbd9687e53d1e7419U, 0x3c3e24eb3bfd868fU, 0xbd0e9bb0bb7d868fU,
  0x3c3e24eb3d1e7419U, 0x3d5dd5bdbc3e24ebU, 0x3cddd5bdbc9e7419U, 0x3d4dfd543d3e24ebU,
  0xbc9e7419bc7d868fU, 0x3bfd868fU, 0x3cfd868f3d0e9bb0U, 0xbb7d868fbc9e7419U,
  0x3d3e24ebbb7d868fU, 0x3d1e74193b7d868fU, 0xbd5dd5bd3d4dfd54U, 0xbc9e74193cbe24ebU,
  0xbb7d868f3b7d868fU, 0x3d2e4c82bd0e9bb0U, 0x3c7d868fbcfd868fU, 0xbb7d868f3d2e4c82U,
  0xbbfd868f3bfd868fU, 0xbdbe24eb3bfd868fU, 0xbc7d868f3d0e9bb0U, 0xbd5dd5bd3cbe24ebU,
  0xbd1e74193cfd868fU, 0x3d0e9bb0bc9e7419U, 0xbb7d868f00000000U, 0x3c9e74193bfd868fU,
  0xbd3e24ebbcddd5bdU, 0xbcfd868fbd2e4c82U, 0x3cddd5bd3d0e9bb0U, 0x3b7d868f3c7d868fU,
  0x3b7d868fbcddd5bdU, 0x3c9e74193cfd868fU, 0xbcbe24eb00000000U, 0xbd3e24eb3d1e7419U,
  0x3cbe24ebbc3e24ebU, 0xbd5dd5bd3c3e24ebU, 0xbb7d868fU, 0xbbfd868fbc9e7419U,
  0xbbfd868fbcbe24ebU, 0x3cbe24ebbc7d868fU, 0xbc3e24ebbcddd5bdU, 0xbbfd868fbc9e7419U,
  0x3d0e9bb0U, 0x3bfd868f3cfd868fU, 0x3cddd5bdbc9e7419U, 0xbb7d868fbcddd5bdU,
  0xbd1e74193c9e7419U, 0xbd1e74193cddd5bdU, 0x3cddd5bdbc9e7419U, 0x3cbe24ebbbfd868fU,
  0x3cbe24ebbd0e9bb0U, 0xbb7d868fbd0e9bb0U, 0x3cddd5bd00000000U, 0x3c9e7419bb7d868fU,
  0xbbfd868fbcfd868fU, 0xbc9e74193cfd868fU, 0x3b7d868f3c3e24ebU, 0x3bfd868f3d1e7419U,
  0xbcddd5bdbcddd5bdU, 0xbd0e9bb0bcfd868fU, 0xbcfd868f3b7d868fU, 0xbcbe24eb3c9e7419U,
  0xbd0e9bb0bcbe24ebU, 0xbd5dd5bd3cbe24ebU, 0xbcfd868fbbfd868fU, 0xbb7d868f00000000U,
  0xbcbe24ebbc7d868fU, 0xbd2e4c82bc7d868fU, 0xbd2e4c823d1e7419U, 0x3c7d868f3d5dd5bdU,
  0x3c7d868f3b7d868fU, 0x3b7d868f3cbe24ebU, 0xbd2e4c823cfd868fU, 0x3cbe24eb3cddd5bdU,
  0x3c3e24eb3cfd868fU, 0xbc3e24eb3cfd868fU, 0x3d3e24ebbcddd5bdU, 0xbd0e9bb03c7d868fU,
  0x3cfd868f3bfd868fU, 0x3d0e9bb03b7d868fU, 0xbcddd5bd3bfd868fU, 0x3d1e74193cfd868fU,
  0xbc7d868fbc3e24ebU, 0xbd5dd5bdbc9e7419U, 0xbc3e24ebbc7d868fU, 0x3cddd5bd3d5dd5bdU,
  0xbcfd868fbc9e7419U, 0xbc3e24eb00000000U, 0xbbfd868fbd1e7419U, 0xbd0e9bb03cbe24ebU,
  0xbd1e74193bfd868fU, 0x3cfd868fbd1e7419U, 0xbb7d868fbc7d868fU, 0x3cfd868fbd1e7419U,
  0xbc9e74193c7d868fU, 0xbd3e24ebbc9e7419U, 0xbc3e24ebbc3e24ebU, 0x3c3e24ebbbfd868fU,
  0xbd4dfd543c3e24ebU, 0xbc9e74193da6604eU, 0x3c7d868f3d1e7419U, 0x3cfd868f3c7d868fU,
  0x3d1e7419bbfd868fU, 0xbcbe24ebbd2e4c82U, 0x3d1e74193c7d868fU, 0xbcfd868fbc3e24ebU,
  0x3c7d868f3d1e7419U, 0x3b7d868f00000000U, 0x3da6604e3cbe24ebU, 0xbcbe24eb3cbe24ebU,
  0x3cfd868fbcddd5bdU, 0xbcddd5bdbc9e7419U, 0x3d0e9bb03bfd868fU, 0xbc3e24eb3c9e7419U,
  0x3d2e4c823d0e9bb0U, 0xbdb638b7bbfd868fU, 0xbcfd868f00000000U, 0xbc7d868f3d7d868fU,
  0xbc9e7419bd3e24ebU, 0xbc3e24ebbcddd5bdU, 0xbc7d868fbd0e9bb0U, 0x3d2e4c82bcddd5bdU,
  0x3cddd5bd3bfd868fU, 0x3c3e24eb3bfd868fU, 0xbd0e9bb03bfd868fU, 0x3d1e74193c9e7419U,
  0x3c9e7419bb7d868fU, 0x3cddd5bdbc7d868fU, 0xbd1e74193c9e7419U, 0xbbfd868f00000000U,
  0x3b7d868f3cddd5bdU, 0x3d0e9bb000000000U, 0x3b7d868f00000000U, 0xbc3e24eb3d1e7419U,
  0x3cbe24eb3c9e7419U, 0x3b7d868f3d2e4c82U, 0xbd0e9bb0bb7d868fU, 0x3d2e4c82bc7d868fU,
  0x3d3e24ebbcfd868fU, 0x3c3e24eb3d1e7419U, 0xbc3e24ebU, 0xbc7d868f3bfd868fU,
  0xbbfd868fbc3e24ebU, 0x3e2a5668bc7d868fU, 0x3c9e74193c3e24ebU, 0xbcddd5bd3d0e9bb0U,
  0x3d2e4c8200000000U, 0xbc9e7419bd1e7419U, 0xbc3e24ebU, 0x3c7d868f3d1e7419U,
  0xbd2e4c82bcfd868fU, 0xbcfd868f00000000U, 0xbd2e4c82bcddd5bdU, 0x3c9e7419bc3e24ebU,
  0xbd1e7419bcfd868fU, 0xbc3e24eb3b7d868fU, 0x3b7d868f3c9e7419U, 0x3bfd868fbd0e9bb0U,
  0x3bfd868f3c3e24ebU, 0xbdae4c82bc7d868fU, 0x3c9e74193bfd868fU, 0x3cbe24ebU,
  0xbb7d868fbbfd868fU, 0x3c3e24eb00000000U, 0x3cbe24eb3c7d868fU, 0x3b7d868f3cfd868fU,
  0x3d2e4c82bd4dfd54U, 0xbcbe24ebbcbe24ebU, 0x3bfd868f3c9e7419U, 0xbbfd868f00000000U,
  0x3d2e4c823d0e9bb0U, 0xbd4dfd543d0e9bb0U, 0xbbfd868f3c3e24ebU, 0x3d2e4c82bd0e9bb0U,
  0xbcfd868f3c9e7419U, 0xbd0e9bb0bc3e24ebU, 0x3c7d868fbc9e7419U, 0xbc3e24eb3cddd5bdU,
  0x3c7d868f00000000U, 0x3b7d868f3d2e4c82U, 0x3d2e4c823c9e7419U, 0x3b7d868f3d2e4c82U,
  0xbc3e24ebbc3e24ebU, 0xbd2e4c823d0e9bb0U, 0x3cbe24ebbbfd868fU, 0xbc9e74193cddd5bdU,
  0x3d1e741900000000U, 0x3b7d868f3c3e24ebU, 0x3d0e9bb03d0e9bb0U, 0x3c9e7419bcbe24ebU,
  0x3c3e24eb00000000U, 0x3d1e74193cfd868fU, 0xbcbe24eb3d2e4c82U, 0xbbfd868fbc9e7419U,
  0x3bfd868f3c9e7419U, 0xbd0e9bb03bfd868fU, 0xbbfd868fU, 0x3d0e9bb0bc7d868fU,
  0xbc9e7419bc7d868fU, 0x3c9e74193b7d868fU, 0x3cbe24eb00000000U, 0xbc9e74193d1e7419U,
  0xbc9e7419bbfd868fU, 0x3d2e4c82bbfd868fU, 0x3d2e4c823d6dae26U, 0x3cfd868f3cfd868fU,
  0x3cfd868fbd2e4c82U, 0xbcbe24eb3c3e24ebU, 0x3bfd868f3cddd5bdU, 0x3b7d868f3cfd868fU,
  0xbd0e9bb03bfd868fU, 0xbcbe24eb00000000U, 0xbbfd868fbcfd868fU, 0x3d2e4c82bcddd5bdU,
  0x3d0e9bb0U, 0x3cfd868fbcddd5bdU, 0xbc9e74193cbe24ebU, 0x3b7d868f3c3e24ebU,
  0x3c9e74193cfd868fU, 0xbc9e7419bd1e7419U, 0xbbfd868f3cddd5bdU, 0xbb7d868fbc7d868fU,
  0xbc3e24eb3cfd868fU, 0xbe1291cb3cddd5bdU, 0xbcddd5bd3cfd868fU, 0xbbfd868fbc9e7419U,
  0xbc3e24eb3d1e7419U, 0x3d86af7cbd4dfd54U, 0x3cfd868fbcbe24ebU, 0x3c9e74193d0e9bb0U,
  0xbbfd868fbd9e7419U, 0xbcfd868f3c9e7419U, 0x3d2e4c823b7d868fU, 0x3b7d868f00000000U,
  0xbd5dd5bd3cddd5bdU, 0xbb7d868f3d0e9bb0U, 0xbc3e24eb3cbe24ebU, 0x3d0e9bb000000000U,
  0xbbfd868fbd0e9bb0U, 0x3da6604e3c3e24ebU, 0x3bfd868f3c7d868fU, 0xbd0e9bb0bc3e24ebU,
  0x3d6dae263d2e4c82U, 0x3cbe24ebbd6dae26U, 0xbc9e74193d1e7419U, 0x3b7d868f3cbe24ebU,
  0xbbfd868fbdae4c82U, 0xbcbe24ebbd2e4c82U, 0xbcfd868fbcddd5bdU, 0xbbfd868f3c9e7419U,
  0x3c7d868f3d2e4c82U, 0xbd0e9bb03d0e9bb0U, 0xbd2e4c82bd2e4c82U, 0xbcddd5bdbcfd868fU,
  0x3c9e7419bc9e7419U, 0x3d86af7cbb7d868fU, 0xbd0e9bb0bcbe24ebU, 0x3cfd868fbd2e4c82U,
  0xbc9e7419bb7d868fU, 0xbd4dfd543c3e24ebU, 0xbcfd868fbd1e7419U, 0xbd1e7419bc9e7419U,
  0xbcddd5bdbd9687e5U, 0xbc3e24eb3cbe24ebU, 0xbbfd868fbcbe24ebU, 0xbd0e9bb03c3e24ebU,
  0x3cbe24ebbd1e7419U, 0xbbfd868fU, 0xbcfd868f3cfd868fU, 0x3cddd5bd3c3e24ebU,
  0x3cfd868f3c3e24ebU, 0xbd9687e5bd2e4c82U, 0x3bfd868f3d1e7419U, 0xbbfd868f3c7d868fU,
  0xbc7d868f3d1e7419U, 0xbd5dd5bd3b7d868fU, 0xbd5dd5bd3d2e4c82U, 0x3bfd868f3d1e7419U,
  0xbc7d868fbd8e9bb0U, 0x3cbe24ebbd0e9bb0U, 0x3d0e9bb03c3e24ebU, 0xbd0e9bb03c9e7419U,
  0xbcbe24ebbd0e9bb0U, 0xbd3e24ebbc3e24ebU, 0xbd1e74193c9e7419U, 0xbcbe24eb3d2e4c82U,
  0xbc3e24ebbd1e7419U, 0x3e0e9bb0bd0e9bb0U, 0x3b7d868f3d0e9bb0U, 0x3cfd868fbd0e9bb0U,
  0xbb7d868f3cddd5bdU, 0x3d2e4c82bc7d868fU, 0xbd0e9bb0bcddd5bdU, 0x3b7d868fbc9e7419U,
  0xbb7d868f3c3e24ebU, 0x3c9e7419bbfd868fU, 0xbc3e24eb3cddd5bdU, 0x3b7d868f3cfd868fU,
  0x3cbe24ebbc9e7419U, 0xbc3e24eb3c9e7419U, 0xbd0e9bb03c7d868fU, 0x3d1e7419bc3e24ebU,
  0x3bfd868f3b7d868fU, 0x3d9e74193cddd5bdU, 0x3c3e24ebbbfd868fU, 0x3b7d868fbd0e9bb0U,
  0xbc7d868f00000000U, 0xbcbe24eb3d1e7419U, 0x3c9e7419bc7d868fU, 0xbd3e24ebbbfd868fU,
  0x3b7d868fbc7d868fU, 0x3c9e74193d0e9bb0U, 0x3c7d868fbcbe24ebU, 0x3cddd5bdbd1e7419U,
  0xbcddd5bd3cfd868fU, 0xbcbe24ebbd0e9bb0U, 0x3cfd868f00000000U, 0x3cfd868fbc7d868fU,
  0xbcbe24eb3d3e24ebU, 0x3dbe24ebbd0e9bb0U, 0xbd0e9bb000000000U, 0x3c9e7419bc7d868fU,
  0xbc3e24eb00000000U, 0x3cfd868f3cfd868fU, 0x3d0e9bb03cbe24ebU, 0xbbfd868fbc3e24ebU,
  0xbd1e7419bb7d868fU, 0xbd1e74193cbe24ebU, 0x3c3e24ebbd2e4c82U, 0x3bfd868fbd2e4c82U,
  0x3c7d868fU, 0x3d0e9bb0bcbe24ebU, 0xbcbe24ebU, 0x3b7d868fbcfd868fU,
  0x3b7d868f3cbe24ebU, 0xbcddd5bd3d0e9bb0U, 0xbc3e24ebbb7d868fU, 0xbcbe24eb3c9e7419U,
  0x3c7d868fbcbe24ebU, 0x3d5dd5bdbc9e7419U, 0x3c3e24eb3d1e7419U, 0x3cbe24eb3cddd5bdU,
  0x3b7d868fbcfd868fU, 0x3cfd868fbd2e4c82U, 0x3d2e4c823bfd868fU, 0xbd1e74193b7d868fU,
  0x3d2e4c82bcbe24ebU, 0xbcfd868fbd1e7419U, 0x3cbe24eb00000000U, 0xbd1e74193d0e9bb0U,
  0xbb7d868fbcbe24ebU, 0x3d2e4c82U, 0xbc9e74193b7d868fU, 0x3cbe24eb3c9e7419U,
  0x3d9687e53cfd868fU, 0xbbfd868fbd3e24ebU, 0xbcbe24ebbcddd5bdU, 0x3c3e24ebbc3e24ebU,
  0x3c7d868fU, 0x3bfd868fbc7d868fU, 0x3c3e24ebU, 0xbbfd868fbb7d868fU,
  0xbc3e24eb3d0e9bb0U, 0x3c7d868fbcfd868fU, 0x3cddd5bd3c7d868fU, 0x3d0e9bb0bd0e9bb0U,
  0x3c7d868fU, 0xbd0e9bb0bbfd868fU, 0x3bfd868fbc7d868fU, 0xbd2e4c82bb7d868fU,
  0x3c9e7419bd2e4c82U, 0x3b7d868fbc3e24ebU, 0x3c9e74193c7d868fU, 0x3cbe24eb3c7d868fU,
  0xbd0e9bb03d4dfd54U, 0xbd3e24eb00000000U, 0xbb7d868fbcddd5bdU, 0x3c9e7419bbfd868fU,
  0xbcbe24eb3bfd868fU, 0xbb7d868f3c7d868fU, 0xbd0e9bb03c9e7419U, 0x3bfd868fbc9e7419U,
  0x3c3e24eb3c9e7419U, 0x3d9e74193cfd868fU, 0x3bfd868fU, 0x3d0e9bb0bd2e4c82U,
  0x3cddd5bdbd1e7419U, 0x3d1e74193d3e24ebU, 0xbcfd868fbc3e24ebU, 0xbbfd868f3c9e7419U,
  0xbb7d868fbd3e24ebU, 0xbc3e24eb00000000U, 0xbd0e9bb03cddd5bdU, 0x3b7d868f3bfd868fU,
  0x3cfd868f3d0e9bb0U, 0x3b7d868fbc3e24ebU, 0xbd1e74193b7d868fU, 0x3cbe24ebbcddd5bdU,
  0xbb7d868fbc3e24ebU, 0x3dfd868f3c9e7419U, 0x3c9e74193c3e24ebU, 0xbb7d868f3c9e7419U,
  0xbcfd868fU, 0x3d9e74193b7d868fU, 0xbd4dfd54bcbe24ebU, 0xbcfd868f3d8e9bb0U,
  0xbb7d868fbcddd5bdU, 0xbc9e7419bcbe24ebU, 0x3cfd868f3d0e9bb0U, 0x3b7d868f00000000U,
  0xbcbe24ebbc3e24ebU, 0xbd4dfd54bc9e7419U, 0x3c7d868fU, 0x3c3e24ebU,
  0xbc3e24eb3cddd5bdU, 0xbcddd5bd3bfd868fU, 0xbc3e24eb3c3e24ebU, 0xbc7d868fU,
  0x3d7d868fbc9e7419U, 0xbd3e24eb00000000U, 0x3c7d868f3c3e24ebU, 0x3bfd868f3b7d868fU,
  0xbc9e74193b7d868fU, 0x3bfd868f3c3e24ebU, 0xbd2e4c823c9e7419U, 0xbb7d868fbd2e4c82U,
  0xbcddd5bdbd0e9bb0U, 0xbcfd868f3d1e7419U, 0x3c9e74193bfd868fU, 0xbd1e741900000000U,
  0x3cbe24ebbcbe24ebU, 0xbdae4c82bcfd868fU, 0x3d0e9bb0bc9e7419U, 0xbcfd868fbd0e9bb0U,
  0xbcbe24eb00000000U, 0xbdcdfd543c7d868fU, 0xbd0e9bb03cbe24ebU, 0x3d5dd5bdbc3e24ebU,
  0x3b7d868fbc3e24ebU, 0x3bfd868fU, 0x3cfd868fbcddd5bdU, 0xbcfd868fbbfd868fU,
  0xbc3e24ebbcfd868fU, 0xbc7d868f3c3e24ebU, 0xbc9e7419U, 0xbc7d868fbc9e7419U,
  0x3b7d868f3d0e9bb0U, 0x3dd5e989bd0e9bb0U, 0x3c9e74193bfd868fU, 0x3cbe24eb3d0e9bb0U,
  0xbb7d868fbcfd868fU, 0xbd0e9bb0bcfd868fU, 0xbc3e24ebbb7d868fU, 0x3d86af7c3d4dfd54U,
  0x3cbe24ebbcfd868fU, 0x3c7d868fbbfd868fU, 0x3cddd5bd3b7d868fU, 0xbcbe24eb3d2e4c82U,
  0xbc7d868f3cfd868fU, 0x3cddd5bdbd0e9bb0U, 0xbb7d868fbb7d868fU, 0xbd1e7419bc3e24ebU,
  0x3d2e4c823c9e7419U, 0xbbfd868fbb7d868fU, 0xbc7d868f3c9e7419U, 0xbcbe24eb3cfd868fU,
  0x3d7d868fbcddd5bdU, 0x3c9e741900000000U, 0xbc3e24ebbc9e7419U, 0x3c3e24ebbc9e7419U,
  0xbb7d868f3c9e7419U, 0x3cbe24eb00000000U, 0xbcfd868fbc9e7419U, 0xbcfd868fbd0e9bb0U,
  0xbb7d868f00000000U, 0x3b7d868f3bfd868fU, 0x3bfd868f3c7d868fU, 0x3c9e74193d2e4c82U,
  0xbcbe24eb3d2e4c82U, 0x3c7d868f3cfd868fU, 0x3cfd868f3cfd868fU, 0xbd2e4c823cbe24ebU,
  0x3d1e7419U, 0x3d9687e53d4dfd54U, 0x3d3e24eb3d1e7419U, 0xbd0e9bb0bc3e24ebU,
  0x3c7d868f3c7d868fU, 0xbc9e7419bcddd5bdU, 0xbd0e9bb000000000U, 0x3c3e24ebbc9e7419U,
  0xbbfd868f3cfd868fU, 0xbb7d868fbd0e9bb0U, 0xbc9e7419bcfd868fU, 0xbcfd868f3cddd5bdU,
  0x3d2e4c823cddd5bdU, 0x3c9e7419bd0e9bb0U, 0x3d1e7419bd1e7419U, 0xbc9e741900000000U,
  0xbcfd868f3cbe24ebU, 0x3bfd868f3d5dd5bdU, 0x3d0e9bb03c3e24ebU, 0x3d0e9bb03cfd868fU,
  0xbcbe24eb3c9e7419U, 0x3cbe24ebbcfd868fU, 0xbc9e7419bb7d868fU, 0x3cbe24eb3d0e9bb0U,
  0x3d6dae263c3e24ebU, 0x3d4dfd54bbfd868fU, 0x0U, 0xbd0e9bb0bc7d868fU,
  0xbcddd5bdbc7d868fU, 0x3d9687e53d2e4c82U, 0x3c9e74193c9e7419U, 0xbc7d868f3d1e7419U,
  0x3d5dd5bd00000000U, 0xbd7d868fbd2e4c82U, 0x3c9e7419bcfd868fU, 0x3b7d868f3d4dfd54U,
  0x3cfd868fbd5dd5bdU, 0x3c9e7419bcfd868fU, 0xbb7d868f3d0e9bb0U, 0x3b7d868fU,
  0xbc9e7419U, 0x3c3e24ebbc3e24ebU, 0x3bfd868f3d0e9bb0U, 0x3cddd5bdbcddd5bdU,
  0xbcfd868fbcfd868fU, 0xbd0e9bb03bfd868fU, 0x3b7d868f3cfd868fU, 0x3cfd868fbcddd5bdU,
  0x3bfd868f3cbe24ebU, 0xbb7d868fbbfd868fU, 0x3c9e7419bd2e4c82U, 0xbc7d868f3bfd868fU,
  0xbbfd868f3dd5e989U, 0x3d0e9bb0bcbe24ebU, 0x3cddd5bdbc9e7419U, 0xbb7d868f3d0e9bb0U,
  0xbd0e9bb0U, 0xbcfd868fbcfd868fU, 0x3c3e24eb3c3e24ebU, 0xbc3e24eb3d0e9bb0U,
  0xbbfd868fU, 0xbe226a34bc7d868fU, 0x3d0e9bb03b7d868fU, 0x3c7d868f00000000U,
  0x3c9e7419bd2e4c82U, 0xbc9e74193d3e24ebU, 0xbc7d868f3bfd868fU, 0x3bfd868fbd2e4c82U,
  0xbd1e74193d0e9bb0U, 0xbd2e4c82bc3e24ebU, 0x3c3e24eb3cbe24ebU, 0x3c7d868f3bfd868fU,
  0x3d3e24ebbc9e7419U, 0x3d4dfd54bd0e9bb0U, 0x3d8e9bb03c7d868fU, 0xbcbe24ebbb7d868fU,
  0xbc3e24eb3b7d868fU, 0xbd86af7c3d2e4c82U, 0xbc3e24ebbc7d868fU, 0xbb7d868f3b7d868fU,
  0x3d1e7419bd0e9bb0U, 0xbcbe24ebbd86af7cU, 0x3d6dae26bd1e7419U, 0xbd1e7419bc7d868fU,
  0xbd5dd5bdbc7d868fU, 0x3cfd868fU, 0xbc7d868f3cbe24ebU, 0xbc7d868fbc7d868fU,
  0xbd0e9bb03d2e4c82U, 0x3d86af7cbc7d868fU, 0xbd4dfd543bfd868fU, 0xbd0e9bb03cddd5bdU,
  0x3b7d868fbbfd868fU, 0x3d9687e53c9e7419U, 0x3c9e7419bcddd5bdU, 0xbcddd5bd3b7d868fU,
  0xbb7d868fbd2e4c82U, 0x3cbe24ebbd2e4c82U, 0x3b7d868fbc7d868fU, 0x3d3e24eb3bfd868fU,
  0xbcbe24eb3d4dfd54U, 0x3b7d868fU, 0x3cddd5bdbb7d868fU, 0x3cfd868f3cfd868fU,
  0x3cddd5bd3cddd5bdU, 0x3c7d868f3cbe24ebU, 0xbcddd5bdbd3e24ebU, 0xbc9e7419bc9e7419U,
  0xbb7d868f3cfd868fU, 0xbc3e24eb3cddd5bdU, 0x3d2e4c82bbfd868fU, 0x3d1e7419bd2e4c82U,
  0x3bfd868fU, 0x3c3e24eb3d0e9bb0U, 0xbc9e7419bd2e4c82U, 0x3d6dae2600000000U,
  0x3b7d868fbd3e24ebU, 0x3c7d868f3d0e9bb0U, 0x3cbe24ebbd0e9bb0U, 0x3d3e24ebbcfd868fU,
  0x3d3e24ebbcbe24ebU, 0xbcddd5bd3cddd5bdU, 0x3da6604e3cfd868fU, 0xbcbe24ebbbfd868fU,
  0x3cfd868f3d0e9bb0U, 0x3bfd868fbc9e7419U, 0xbb7d868f3d0e9bb0U, 0x3bfd868fbd0e9bb0U,
  0x3c7d868f3b7d868fU, 0x3dcdfd54bcfd868fU, 0x3d1e7419bcddd5bdU, 0x3c9e74193b7d868fU,
  0x3cfd868fU, 0x3c9e74193cbe24ebU, 0xbcfd868f3c9e7419U, 0xbcbe24eb3d2e4c82U,
  0x3d2e4c82bd0e9bb0U, 0xbc3e24ebbd2e4c82U, 0xbc9e7419bcddd5bdU, 0x3c9e74193c9e7419U,
  0x3c9e7419bcddd5bdU, 0x3d5dd5bdbcbe24ebU, 0x3d1e7419bc7d868fU, 0xbd0e9bb0bc3e24ebU,
  0x3d3e24ebbd2e4c82U, 0xbcfd868fbc9e7419U, 0x3c9e74193d1e7419U, 0x3cfd868f3c3e24ebU,
  0x3d1e7419bdae4c82U, 0xbcddd5bd3c9e7419U, 0xbc3e24ebbc9e7419U, 0x3cddd5bd3d1e7419U,
  0xbcddd5bd3c3e24ebU, 0xbcddd5bdbd0e9bb0U, 0xbb7d868f3c3e24ebU, 0x3cbe24ebbb7d868fU,
  0xbd1e7419bbfd868fU, 0xbd1e74193d0e9bb0U, 0xbd1e74193cddd5bdU, 0xbcbe24ebbc7d868fU,
  0xbd0e9bb000000000U, 0x3c3e24ebbbfd868fU, 0x3c9e74193c3e24ebU, 0x3cddd5bdbc9e7419U,
  0x3c9e7419bd4dfd54U, 0x3b7d868fbd2e4c82U, 0x3c9e741900000000U, 0xbcfd868f3c9e7419U,
  0xbbfd868fbd0e9bb0U, 0x3d0e9bb03d0e9bb0U, 0xbcfd868f3c7d868fU, 0xbcddd5bdbcbe24ebU,
  0xbc7d868fbcfd868fU, 0xbdbe24eb00000000U, 0x3bfd868fbc7d868fU, 0xbb7d868f00000000U,
  0xbd3e24ebbcfd868fU, 0x3db638b73c9e7419U, 0x3d0e9bb0bc7d868fU, 0xbc3e24eb3cbe24ebU,
  0xbcbe24eb3c3e24ebU, 0x3bfd868fbcbe24ebU, 0x3cbe24eb00000000U, 0xbc9e74193cddd5bdU,
  0xbb7d868fbcfd868fU, 0x3c7d868f3b7d868fU, 0x3d1e74193d2e4c82U, 0x3c3e24eb3b7d868fU,
  0xbc9e7419bc3e24ebU, 0x3dcdfd54bc7d868fU, 0xbd2e4c82bc3e24ebU, 0x3b7d868fbd0e9bb0U,
  0xbc7d868fU, 0x3d0e9bb0bd1e7419U, 0x3c3e24ebbc9e7419U, 0x3d1e74193cfd868fU,
  0x3c3e24ebbd5dd5bdU, 0x3cddd5bdbc3e24ebU, 0xbd1e74193cddd5bdU, 0x3d1e74193cddd5bdU,
  0x3d0e9bb0bb7d868fU, 0x3c7d868fbbfd868fU, 0xbc9e7419bcbe24ebU, 0x3c9e7419bcddd5bdU,
  0xbb7d868fbcddd5bdU, 0xbdb638b7bd1e7419U, 0x3c9e7419bc9e7419U, 0x3c9e74193cbe24ebU,
  0x3c9e74193d0e9bb0U, 0x3d86af7cbc7d868fU, 0x3cbe24ebbcddd5bdU, 0x3cfd868f3d2e4c82U,
  0xbc9e74193bfd868fU, 0x3c9e74193cfd868fU, 0x3c9e7419bd0e9bb0U, 0xbc9e7419bbfd868fU,
  0xbcddd5bd3c3e24ebU, 0xbc3e24ebbd1e7419U, 0x3d86af7cbc9e7419U, 0xbc7d868fbc3e24ebU,
  0xbd1e741900000000U, 0xbdf59a5bbcddd5bdU, 0xbcbe24eb3cddd5bdU, 0x3cbe24eb3cddd5bdU,
  0x3cbe24ebbc9e7419U, 0x3d4dfd54bd0e9bb0U, 0xbbfd868fU, 0x3c3e24ebbbfd868fU,
  0x3b7d868f3c3e24ebU, 0x3d1e7419U, 0x3d1e741900000000U, 0x3d2e4c823d1e7419U,
  0x3b7d868f3d2e4c82U, 0x3d2e4c823c3e24ebU, 0x3c9e74193d1e7419U, 0x3d0e9bb0bd2e4c82U,
  0xbd0e9bb0bbfd868fU, 0xbc9e741900000000U, 0xbcbe24ebbc3e24ebU, 0x3bfd868f3cbe24ebU,
  0x3bfd868f3cddd5bdU, 0x3d3e24eb3c7d868fU, 0x3b7d868fbc9e7419U, 0xbcbe24eb3c7d868fU,
  0xbcddd5bdbc3e24ebU, 0x3d0e9bb03d2e4c82U, 0x3d2e4c823cddd5bdU, 0x3c7d868f3d1e7419U,
  0x3d2e4c82bcddd5bdU, 0x3c9e7419bcddd5bdU, 0x3d0e9bb03d3e24ebU, 0xbc3e24ebU,
  0x3d2e4c82U, 0xbb7d868fbbfd868fU, 0xbcddd5bd3cbe24ebU, 0xbcddd5bd00000000U,
  0x3d1e74193d1e7419U, 0x3d86af7c3cddd5bdU, 0x3d2e4c82bc7d868fU, 0x3cbe24ebbd0e9bb0U,
  0x3cfd868f00000000U, 0x3cbe24eb00000000U, 0x3b7d868f3c7d868fU, 0xbc7d868f3d1e7419U,
  0x3bfd868f3c3e24ebU, 0x3c9e74193d1e7419U, 0xbd0e9bb0bc3e24ebU, 0x3c7d868fbb7d868fU,
  0xbcddd5bdbc7d868fU, 0xbe0e9bb0bb7d868fU, 0x3bfd868f3b7d868fU, 0x3c7d868f00000000U,
  0xbc9e7419bbfd868fU, 0xbc3e24ebbd86af7cU, 0x3c7d868f3c3e24ebU, 0x3c7d868fbd1e7419U,
  0x3bfd868fbcbe24ebU, 0x3c3e24eb3d2e4c82U, 0xbc7d868f3bfd868fU, 0xbcddd5bdbd0e9bb0U,
  0x3b7d868fbc3e24ebU, 0x3c7d868fbcfd868fU, 0xbd7d868fbd0e9bb0U, 0x3d2e4c82bd0e9bb0U,
  0x3c3e24ebbcbe24ebU, 0xbc7d868f3b7d868fU, 0xbd1e7419bc3e24ebU, 0xbcddd5bdbcfd868fU,
  0xbbfd868fbc7d868fU, 0xbd86af7c3cddd5bdU, 0x3cbe24eb3cddd5bdU, 0x3d1e74193cddd5bdU,
  0xbcfd868fbdb638b7U, 0x3cfd868fbd1e7419U, 0x3b7d868f3cbe24ebU, 0x3b7d868fbd1e7419U,
  0xbc3e24ebbcddd5bdU, 0xbd0e9bb0bb7d868fU, 0xbcddd5bdbcfd868fU, 0x3c3e24ebbcbe24ebU,
  0x3cfd868fU, 0x3e0aa5963cbe24ebU, 0x3bfd868f3d1e7419U, 0xbc3e24ebbcbe24ebU,
  0x3cfd868fbcddd5bdU, 0x3bfd868fbd8e9bb0U, 0x3d0e9bb03cfd868fU, 0xbc9e7419bc9e7419U,
  0x3cddd5bdbc9e7419U, 0xbcfd868fbcfd868fU, 0xbc3e24eb3cfd868fU, 0x3c9e74193d0e9bb0U,
  0xbd1e7419bbfd868fU, 0x3b7d868f3cddd5bdU, 0xbd7d868fbbfd868fU, 0x3d0e9bb03d2e4c82U,
  0xbc7d868fbb7d868fU, 0x3c3e24eb3c3e24ebU, 0xbc3e24eb3d2e4c82U, 0xbd3e24eb3b7d868fU,
  0x3d2e4c82bc3e24ebU, 0x3c3e24ebbd9e7419U, 0xbcfd868f3d1e7419U, 0xbc9e74193bfd868fU,
  0xbb7d868fbc3e24ebU, 0xbc3e24ebbbfd868fU, 0x3b7d868fbd0e9bb0U, 0x3c9e7419bcfd868fU,
  0xbc9e7419bbfd868fU, 0xbcbe24eb3c3e24ebU, 0xbd2e4c823b7d868fU, 0xbd1e7419bc7d868fU,
  0x3c9e7419bc7d868fU, 0x3d6dae263d0e9bb0U, 0x3d1e7419bc3e24ebU, 0x3cfd868f3d0e9bb0U,
  0x3b7d868fU, 0x3b7d868fU, 0x3d4dfd543d0e9bb0U, 0xbd2e4c82bc3e24ebU,
  0xbbfd868fU, 0x3cbe24ebbcbe24ebU, 0x3c3e24eb3d0e9bb0U, 0x3c3e24ebbcddd5bdU,
  0xbbfd868f3cfd868fU, 0xbc3e24eb3c9e7419U, 0xbd3e24eb3b7d868fU, 0x3bfd868f3d0e9bb0U,
  0xbd0e9bb03c9e7419U, 0x3da6604ebd0e9bb0U, 0xbcddd5bd3d0e9bb0U, 0xbd3e24ebbc7d868fU,
  0x3cbe24eb3bfd868fU, 0x3d0e9bb0bd4dfd54U, 0xbd0e9bb0bc3e24ebU, 0x3c7d868f3d9e7419U,
  0x3cfd868f3d1e7419U, 0x3d2e4c823c9e7419U, 0x3cbe24ebbb7d868fU, 0xbd1e7419bcbe24ebU,
  0xbbfd868fbcfd868fU, 0xbd2e4c82bc9e7419U, 0xbb7d868fbd2e4c82U, 0x3b7d868f3d2e4c82U,
  0x3cddd5bdbd1e7419U, 0xbcbe24eb3cbe24ebU, 0xbc9e74193cbe24ebU, 0xbd0e9bb03cbe24ebU,
  0xbcbe24ebU, 0x3d0e9bb03d3e24ebU, 0xbd2e4c82bb7d868fU, 0xbcfd868f3bfd868fU,
  0xbb7d868fbb7d868fU, 0x3cfd868fbbfd868fU, 0x3b7d868f00000000U, 0xbd1e74193b7d868fU,
  0xbc3e24ebbb7d868fU, 0xbd2e4c82bb7d868fU, 0x3dae4c82bd1e7419U, 0x3c7d868f3c9e7419U,
  0xbc7d868fbbfd868fU, 0xbd9687e5bc7d868fU, 0xbbfd868f3d0e9bb0U, 0xbd1e7419bd1e7419U,
  0xbbfd868fbc3e24ebU, 0xbd3e24ebbc9e7419U, 0x3cddd5bdbc7d868fU, 0x3cbe24eb3d6dae26U,
  0xbc9e74193d8e9bb0U, 0x3b7d868f3b7d868fU, 0x3bfd868f3c7d868fU, 0xbcfd868fbcfd868fU,
  0x3c3e24eb3d0e9bb0U, 0xbd2e4c82bc7d868fU, 0x3cbe24ebbc7d868fU, 0x3d0e9bb0bc7d868fU,
  0x3c9e74193bfd868fU, 0x3dd5e9893cddd5bdU, 0xbc3e24ebbcfd868fU, 0xbc7d868fbcfd868fU,
  0xbd5dd5bdbc7d868fU, 0x3d1e74193d5dd5bdU, 0xbcbe24eb3cbe24ebU, 0x3bfd868f3b7d868fU,
  0xbcbe24ebbc3e24ebU, 0xbd3e24eb3bfd868fU, 0xbc3e24ebbd0e9bb0U, 0xbbfd868f3c9e7419U,
  0x3d3e24eb00000000U, 0x3cddd5bd3cddd5bdU, 0xbd6dae26bc9e7419U, 0x3cbe24ebU,
  0x3b7d868f3cbe24ebU, 0x3d8e9bb0bcfd868fU, 0x3c7d868fbd0e9bb0U, 0x3d3e24eb3c7d868fU,
  0x3d5dd5bdbbfd868fU, 0x3c9e7419bdd5e989U, 0x3d1e74193c3e24ebU, 0xbd7d868f3d3e24ebU,
  0xbc9e7419U, 0x3d2e4c823d2e4c82U, 0x3c3e24ebbbfd868fU, 0x3cfd868fbc7d868fU,
  0xbd3e24eb3c7d868fU, 0xbc9e7419bd2e4c82U, 0xbd3e24eb3c3e24ebU, 0x3d1e741900000000U,
  0x3c3e24eb3d3e24ebU, 0xbbfd868fU, 0xbd1e7419bb7d868fU, 0xbd2e4c82bcfd868fU,
  0xbcbe24ebbcddd5bdU, 0xbcddd5bdU, 0xbc9e74193b7d868fU, 0x3cfd868f3d3e24ebU,
  0x3d2e4c823c7d868fU, 0xbcddd5bdbd1e7419U, 0x3d1e7419bbfd868fU, 0xbc3e24eb00000000U,
  0xbc7d868fbcfd868fU, 0xbcddd5bd3d2e4c82U, 0x3d1e7419bbfd868fU, 0x3cfd868fbd1e7419U,
  0xbc7d868fbc9e7419U, 0xbd86af7c3d1e7419U, 0x3d1e74193c3e24ebU, 0xbcfd868f3cfd868fU,
  0xbc7d868fbcddd5bdU, 0x3c3e24ebbc7d868fU, 0xbcbe24eb3bfd868fU, 0xbd3e24eb3db638b7U,
  0x3c9e74193dbe24ebU, 0x3d1e7419bcfd868fU, 0x3bfd868fbcddd5bdU, 0x3d0e9bb000000000U,
  0xbcddd5bdbd0e9bb0U, 0xbbfd868f3d1e7419U, 0x3cbe24eb3d5dd5bdU, 0xbd1e74193cbe24ebU,
  0x3c3e24eb3b7d868fU, 0x3cddd5bd3cddd5bdU, 0xbd2e4c82bc3e24ebU, 0x3cfd868fbc3e24ebU,
  0xbd3e24eb3b7d868fU, 0x3de5c1f2bc9e7419U, 0x3d1e74193d0e9bb0U, 0x3cfd868f3d5dd5bdU,
  0xbcbe24eb3da6604eU, 0x3d0e9bb0bc9e7419U, 0xbb7d868fbbfd868fU, 0x3d5dd5bdbc7d868fU,
  0x3cddd5bd3b7d868fU, 0x3d7d868f3d1e7419U, 0xbcbe24eb3d4dfd54U, 0xbcbe24ebbc9e7419U,
  0x3c9e7419bcbe24ebU, 0x3c7d868fbcfd868fU, 0x3c3e24ebbcbe24ebU, 0x3d0e9bb0bcddd5bdU,
  0x3d5dd5bd3cddd5bdU, 0x3d7d868f3d86af7cU, 0xbbfd868fbd1e7419U, 0x3d3e24eb3d3e24ebU,
  0x3c7d868f3db638b7U, 0x3d1e7419bbfd868fU, 0x3cddd5bdbd2e4c82U, 0x3cddd5bdbb7d868fU,
  0x3d4dfd54bc9e7419U, 0xbcddd5bdbb7d868fU, 0x3d1e7419bbfd868fU, 0xbd0e9bb0bcbe24ebU,
  0xbcbe24eb3cfd868fU, 0xbd6dae26bd0e9bb0U, 0x3c9e74193c9e7419U, 0x3cfd868f3cfd868fU,
  0x3b7d868fbcbe24ebU, 0xbd1e74193d9e7419U, 0x3c9e7419bc9e7419U, 0xbc7d868fbcfd868fU,
  0x3d1e74193df59a5bU, 0x3c9e74193cbe24ebU, 0x3c7d868f3d0e9bb0U, 0x3c9e74193c7d868fU,
  0xbc9e74193d2e4c82U, 0x3cfd868fbcddd5bdU, 0x3cfd868fbcfd868fU, 0x3cbe24ebbc9e7419U,
  0xbbfd868f3c9e7419U, 0xbcddd5bd00000000U, 0x3d2e4c82U, 0xbcfd868fU,
  0xbdbe24ebbcbe24ebU, 0x3c7d868f3cbe24ebU, 0x3cbe24ebbc3e24ebU, 0xbcfd868f3c9e7419U,
  0x3d0e9bb03d9687e5U, 0xbc9e74193cddd5bdU, 0x3c9e74193c9e7419U, 0xbcfd868f3cbe24ebU,
  0xbd86af7cbb7d868fU, 0x3cddd5bd3cddd5bdU, 0x3d3e24ebbd5dd5bdU, 0x3b7d868fbc9e7419U,
  0xbcbe24ebbc9e7419U, 0xbd9e74193b7d868fU, 0xbcfd868fbc7d868fU, 0x3cddd5bd3cbe24ebU,
  0xbd6dae26bc7d868fU, 0xbd1e7419bd0e9bb0U, 0x3cddd5bd3c9e7419U, 0xbd8e9bb0bd9e7419U,
  0x3d8e9bb03c3e24ebU, 0x3d6dae263bfd868fU, 0x3cbe24eb3d2e4c82U, 0xbc3e24eb00000000U,
  0xbd7d868fbcfd868fU, 0xbd3e24ebbbfd868fU, 0x3d4dfd54bd2e4c82U, 0xbb7d868f3cbe24ebU,
  0x3cfd868fbb7d868fU, 0xbda6604e3d4dfd54U, 0xbcfd868f3d2e4c82U, 0xbcbe24ebbbfd868fU,
  0xbd9e74193d0e9bb0U, 0xbcfd868f3d5dd5bdU, 0xbb7d868fbd2e4c82U, 0x3d8e9bb0bd4dfd54U,
  0x3c3e24eb3d5dd5bdU, 0x3c9e74193d2e4c82U, 0x3cfd868fbd0e9bb0U, 0x3c9e74193cbe24ebU,
  0xbcddd5bdbc7d868fU, 0xbc9e74193c9e7419U, 0xbc7d868fbcddd5bdU, 0x3d2e4c823cbe24ebU,
  0x3d0e9bb0bbfd868fU, 0xbd7d868f3d5dd5bdU, 0xbd0e9bb000000000U, 0x3d4dfd543d3e24ebU,
  0xbdbe24eb00000000U, 0xbd1e74193d2e4c82U, 0x3bfd868fbc7d868fU, 0xbcfd868fbe4a073aU,
  0x3d2e4c823dedae26U, 0x3d2e4c823cddd5bdU, 0xbbfd868f3c3e24ebU, 0x3d2e4c82U,
  0xbd9687e5bcddd5bdU, 0xbd0e9bb03cddd5bdU, 0x3d1e74193c7d868fU, 0x3d6dae263c9e7419U,
  0xbc3e24eb3d8e9bb0U, 0x3d7d868f3d5dd5bdU, 0xbc7d868f3da6604eU, 0x3c9e74193cddd5bdU,
  0xbdb638b73d1e7419U, 0xbdc611203dedae26U, 0xbd2e4c823d1e7419U, 0x3c7d868fbe32429dU,
  0x3d6dae263db638b7U, 0x3d7d868fbc9e7419U, 0x3c3e24ebbcddd5bdU, 0xbbfd868fbc3e24ebU,
  0x3c3e24eb3cddd5bdU, 0xbc7d868f3c9e7419U, 0x3db638b7bd0e9bb0U, 0xbb7d868f3cfd868fU,
  0xbc3e24eb3db638b7U, 0x3e84b46f3cfd868fU, 0xbc3e24eb3dc61120U, 0x3d1e74193d4dfd54U,
  0xbe1687e53cfd868fU, 0xbe9e7419bc3e24ebU, 0xbdb638b7bbfd868fU, 0xbe02b962beefa933U,
  0x3e06af7c3eb638b7U, 0x3de5c1f23d6dae26U, 0x3dbe24ebbd2e4c82U, 0xbc7d868f3b7d868fU,
  0xbe3a2ed1bc7d868fU, 0xbcddd5bdbb7d868fU, 0x3bfd868fbdf59a5bU, 0x3d6dae263c3e24ebU,
  0x3d2e4c82bb7d868fU, 0x3d0e9bb000000000U, 0xbc3e24ebbcfd868fU, 0xbd0e9bb0bc3e24ebU,
  0xbbfd868fbc9e7419U, 0x3b7d868f3c9e7419U, 0x3d0e9bb0U, 0xbcfd868f3bfd868fU,
  0x3bfd868f3bfd868fU, 0xbd3e24ebbcbe24ebU, 0x3bfd868f3b7d868fU, 0x3cddd5bd3cfd868fU,
  0x3c9e7419bc9e7419U, 0xbcbe24ebU, 0x3bfd868f3cfd868fU, 0xbd1e7419bcfd868fU,
  0x3cbe24ebbcfd868fU, 0xbd1e7419bd0e9bb0U, 0x3cbe24ebbd1e7419U, 0x3cfd868fbc7d868fU,
  0xbd1e7419bb7d868fU, 0x3cfd868f3c3e24ebU, 0x3c9e7419bc7d868fU, 0xbd4dfd543cfd868fU,
  0xbd2e4c823d1e7419U, 0xbc9e74193c9e7419U, 0x3b7d868fbd1e7419U, 0xbd1e7419bc9e7419U,
  0xbc7d868fU, 0xbd3e24eb3cfd868fU, 0x3cfd868f3b7d868fU, 0x3d0e9bb03cddd5bdU,
  0x3bfd868f3d0e9bb0U, 0xbbfd868f3bfd868fU, 0xbd2e4c82bcbe24ebU, 0xbc3e24eb3c3e24ebU,
  0x3cbe24ebU, 0x3c7d868f3d0e9bb0U, 0x3d0e9bb03d0e9bb0U, 0xbc9e7419bd3e24ebU,
  0xbcfd868fbc9e7419U, 0xbbfd868fbc3e24ebU, 0x3b7d868fbcbe24ebU, 0xbcddd5bdbd2e4c82U,
  0x3c3e24ebbc3e24ebU, 0x3bfd868f3d0e9bb0U, 0x3cfd868fU, 0x3c9e74193bfd868fU,
  0xbc9e74193d0e9bb0U, 0xbb7d868fbcfd868fU, 0xbc3e24ebbbfd868fU, 0x3c9e7419bd3e24ebU,
  0x3cbe24eb3bfd868fU, 0x3cddd5bdbc3e24ebU, 0xbd0e9bb0bc9e7419U, 0xbc3e24ebbcfd868fU,
  0x3cbe24ebbc7d868fU, 0xbc3e24ebbd0e9bb0U, 0xbd0e9bb0bb7d868fU, 0x3cddd5bdbcddd5bdU,
  0xbbfd868f3d2e4c82U, 0xbcbe24eb00000000U, 0xbd2e4c823c7d868fU, 0x3c9e7419bb7d868fU,
  0x3c9e74193cddd5bdU, 0x3b7d868fbcddd5bdU, 0x3cddd5bd3c7d868fU, 0xbc3e24ebbcbe24ebU,
  0x3b7d868f3cbe24ebU, 0xbcfd868f3c3e24ebU, 0x3b7d868f3d0e9bb0U, 0x3d0e9bb0U,
  0x3d0e9bb0bcfd868fU, 0x3cbe24ebbcfd868fU, 0xbcfd868f3d2e4c82U, 0x3c3e24eb3c9e7419U,
  0xbcddd5bdbc9e7419U, 0xbc9e741900000000U, 0x3cfd868fbd0e9bb0U, 0xbcbe24ebbd2e4c82U,
  0x3cddd5bdbcddd5bdU, 0xbd1e74193c9e7419U, 0x3d0e9bb0bb7d868fU, 0x3cfd868fbcbe24ebU,
  0xbc7d868fbcfd868fU, 0xbc3e24ebbd1e7419U, 0xbcddd5bdbd0e9bb0U, 0xbc9e7419U,
  0xbcbe24ebbcbe24ebU, 0x3cbe24ebbc7d868fU, 0xbb7d868f3c7d868fU, 0xbd0e9bb03bfd868fU,
  0x3c7d868f3c9e7419U, 0xbb7d868fU, 0xbb7d868fbd1e7419U, 0x3d0e9bb03d1e7419U,
  0x3bfd868fbc7d868fU, 0x3cfd868fbcfd868fU, 0x3bfd868f00000000U, 0x3cddd5bd3c3e24ebU,
  0xbd0e9bb03d1e7419U, 0xbc9e7419bd1e7419U, 0xbb7d868f3d0e9bb0U, 0x3bfd868f3c9e7419U,
  0x3cfd868fbcfd868fU, 0xbc7d868f3c7d868fU, 0x3d0e9bb03cbe24ebU, 0x3cddd5bd3c7d868fU,
  0xbbfd868f3cbe24ebU, 0xbb7d868fbc7d868fU, 0xbc9e74193c9e7419U, 0xbbfd868fbc3e24ebU,
  0xbc9e7419bd3e24ebU, 0x3cddd5bd00000000U, 0x3d0e9bb0bcddd5bdU, 0xbd1e7419bc3e24ebU,
  0xbd0e9bb03d2e4c82U, 0x3c9e74193c9e7419U, 0x3bfd868f3b7d868fU, 0xbc7d868fbcddd5bdU,
  0xbbfd868fbcfd868fU, 0xbc3e24eb3c7d868fU, 0xbc3e24ebbbfd868fU, 0xbb7d868f3d0e9bb0U,
  0xbd0e9bb0bbfd868fU, 0xbb7d868fbcddd5bdU, 0x3c7d868f3c9e7419U, 0xbbfd868fbb7d868fU,
  0x3d2e4c82bcddd5bdU, 0x3cfd868f3cbe24ebU, 0xbc9e7419bd3e24ebU, 0xbcddd5bdbcbe24ebU,
  0xbd0e9bb0bd0e9bb0U, 0xbbfd868fbcddd5bdU, 0x3bfd868fbbfd868fU, 0x3c7d868f3b7d868fU,
  0x3cddd5bd3c7d868fU, 0xbc7d868fbc3e24ebU, 0x3b7d868f3bfd868fU, 0x3cbe24ebbcddd5bdU,
  0xbd1e7419bc7d868fU, 0x3cddd5bd3bfd868fU, 0x3c7d868f3d0e9bb0U, 0xbcbe24ebU,
  0xbcddd5bdbc3e24ebU, 0xbcbe24eb00000000U, 0xbbfd868fbc9e7419U, 0xbcfd868fbcfd868fU,
  0xbd1e74193d1e7419U, 0xbcfd868f3bfd868fU, 0xbcfd868f3d0e9bb0U, 0xbcfd868fbb7d868fU,
  0xbd0e9bb0bbfd868fU, 0x3b7d868f3cddd5bdU, 0xbd2e4c82bd1e7419U, 0xbcddd5bd3c7d868fU,
  0x3bfd868fbd2e4c82U, 0x3d0e9bb03c7d868fU, 0xbd3e24ebbcbe24ebU, 0x3d0e9bb03cddd5bdU,
  0x3cfd868fbb7d868fU, 0xbcbe24ebbcfd868fU, 0x3cbe24eb3c9e7419U, 0xbbfd868fbd3e24ebU,
  0xbd2e4c82U, 0x3c3e24eb3d1e7419U, 0xbcfd868f3c3e24ebU, 0xbbfd868fbc7d868fU,
  0xbb7d868fU, 0x3b7d868fbd0e9bb0U, 0xbd3e24eb3c3e24ebU, 0x3cddd5bd3d0e9bb0U,
  0xbd1e74193c9e7419U, 0x3c3e24eb3cddd5bdU, 0xbcbe24ebbd0e9bb0U, 0xbbfd868fbcfd868fU,
  0x3c7d868f3b7d868fU, 0x3d1e7419bc7d868fU, 0x3d2e4c82bc3e24ebU, 0xbc3e24eb3cddd5bdU,
  0xbcddd5bd3cbe24ebU, 0xbd3e24eb3cfd868fU, 0x3cddd5bd00000000U, 0x3c9e7419bc9e7419U,
  0xbbfd868f3cbe24ebU, 0x3cddd5bdbd1e7419U, 0x3cddd5bd3d1e7419U, 0xbd0e9bb03b7d868fU,
  0xbd1e7419bc3e24ebU, 0x3c7d868fbcfd868fU, 0xbc9e7419bd1e7419U, 0xbd1e7419bc3e24ebU,
  0xbc9e7419bcddd5bdU, 0x3b7d868f3d1e7419U, 0xbc7d868fbcddd5bdU, 0xbd2e4c8200000000U,
  0xbd1e74193cddd5bdU, 0xbd2e4c823b7d868fU, 0x3b7d868f3cfd868fU, 0x3bfd868f3cbe24ebU,
  0xbd0e9bb03d1e7419U, 0x3bfd868fbd0e9bb0U, 0xbd0e9bb03cfd868fU, 0xbb7d868fbd1e7419U,
  0x3d0e9bb03bfd868fU, 0xbc7d868fbc3e24ebU, 0xbcbe24eb3d1e7419U, 0x3cfd868fbd2e4c82U,
  0xbd1e74193cbe24ebU, 0xbd1e74193d0e9bb0U, 0xbb7d868fbcddd5bdU, 0x3c3e24ebbd3e24ebU,
  0xbb7d868f3bfd868fU, 0xbd2e4c82bc9e7419U, 0xbb7d868fbcddd5bdU, 0x3b7d868f00000000U,
  0xbc7d868fbd2e4c82U, 0xbc7d868f3cfd868fU, 0x3c9e74193c7d868fU, 0x3c3e24eb3c3e24ebU,
  0xbc7d868f3bfd868fU, 0xbc9e7419bd2e4c82U, 0x3d1e7419bc3e24ebU, 0x3bfd868fbc7d868fU,
  0xbc7d868fbcddd5bdU, 0xbcbe24ebbd3e24ebU, 0xbd2e4c823cfd868fU, 0x3cbe24eb3c9e7419U,
  0xbd1e7419bc7d868fU, 0xbd3e24ebbcfd868fU, 0xbbfd868f3c3e24ebU, 0xbbfd868f3c3e24ebU,
  0x3d0e9bb0bd1e7419U, 0x3cddd5bd3b7d868fU, 0x3cddd5bd3c3e24ebU, 0xbcddd5bdbd1e7419U,
  0xbd1e74193c9e7419U, 0xbd1e74193c3e24ebU, 0x3cddd5bd3bfd868fU, 0x3c9e7419bbfd868fU,
  0x3c3e24ebbbfd868fU, 0x3c7d868fbd1e7419U, 0xbc3e24eb3cfd868fU, 0x3c7d868fbbfd868fU,
  0x3cddd5bd3d1e7419U, 0xbd0e9bb0bd1e7419U, 0x3cbe24eb3cbe24ebU, 0xbd2e4c823cddd5bdU,
  0xbbfd868fbcfd868fU, 0x3d0e9bb0bc7d868fU, 0xbcfd868f3c7d868fU, 0xbd1e7419bd0e9bb0U,
  0xbcddd5bdbd0e9bb0U, 0x3cddd5bdbd2e4c82U, 0x3cbe24ebbc9e7419U, 0xbb7d868fbcfd868fU,
  0xbbfd868f00000000U, 0xbd0e9bb0bd0e9bb0U, 0x3c9e74193cddd5bdU, 0x3c3e24ebU,
  0x3cfd868fbcfd868fU, 0xbd2e4c823bfd868fU, 0x3c9e74193bfd868fU, 0xbd3e24ebbc7d868fU,
  0x3c9e7419U, 0xbc3e24eb3bfd868fU, 0xbcddd5bd3d1e7419U, 0xbd1e74193cfd868fU,
  0xbc9e74193d2e4c82U, 0xbd3e24ebbc7d868fU, 0x3b7d868f3cfd868fU, 0x3c3e24eb3bfd868fU,
  0xbcfd868fbc9e7419U, 0x3c9e74193cddd5bdU, 0xbc7d868f3cfd868fU, 0x3cbe24eb00000000U,
  0xbcbe24ebbd2e4c82U, 0xbd2e4c82bc9e7419U, 0x3cfd868f00000000U, 0xbd0e9bb03cfd868fU,
  0x3cbe24eb3cfd868fU, 0xbc3e24ebbcbe24ebU, 0xbcfd868f3c3e24ebU, 0x3bfd868fbc3e24ebU,
  0x3cfd868fbc9e7419U, 0x3cddd5bdbcbe24ebU, 0x3c3e24ebU, 0xbd3e24eb3d0e9bb0U,
  0x3cddd5bdbcfd868fU, 0xbcbe24ebbd2e4c82U, 0xbcbe24ebbc7d868fU, 0x3c3e24ebbb7d868fU,
  0x3c3e24eb3b7d868fU, 0xbbfd868f3bfd868fU, 0x3c3e24eb3cbe24ebU, 0xbcbe24eb3c3e24ebU,
  0xbc3e24ebbbfd868fU, 0xbb7d868f00000000U, 0xbd0e9bb03cbe24ebU, 0xbc3e24ebbcbe24ebU,
  0x3d0e9bb0bcbe24ebU, 0xbb7d868fbd0e9bb0U, 0xbc9e74193cbe24ebU, 0x3c9e7419bb7d868fU,
  0xbb7d868fbcfd868fU, 0x3c9e7419bc7d868fU, 0xbcfd868fbbfd868fU, 0x3c3e24eb3c7d868fU,
  0x3bfd868f3c7d868fU, 0xbc3e24ebbcbe24ebU, 0xbc7d868fbd0e9bb0U, 0xbd4dfd54bc9e7419U,
  0xbd1e7419bc9e7419U, 0xbd3e24ebbcfd868fU, 0x3c3e24ebbd0e9bb0U, 0xbb7d868fbd1e7419U,
  0xbcfd868f3cfd868fU, 0xbcddd5bd3d2e4c82U, 0x3c3e24ebbcddd5bdU, 0x3c9e7419bb7d868fU,
  0xbcddd5bdU, 0xbc9e74193cddd5bdU, 0xbb7d868f3b7d868fU, 0xbc9e7419bd3e24ebU,
  0x3d2e4c823cbe24ebU, 0xbd1e7419bcbe24ebU, 0x3d0e9bb0bcfd868fU, 0xbd0e9bb000000000U,
  0x3cbe24eb3d0e9bb0U, 0xbc9e74193cfd868fU, 0xbcbe24eb3b7d868fU, 0xbd0e9bb0bb7d868fU,
  0x3c9e74193d2e4c82U, 0x3b7d868f3c3e24ebU, 0xbc3e24ebbc3e24ebU, 0x3c7d868f3bfd868fU,
  0x3bfd868f3cddd5bdU, 0xbd1e7419bc7d868fU, 0x3cfd868fbc9e7419U, 0x3c7d868fbd1e7419U,
  0xbd0e9bb0bcfd868fU, 0x3c3e24ebbbfd868fU, 0x3bfd868f3b7d868fU, 0x3d0e9bb0bd2e4c82U,
  0x3cddd5bdbcbe24ebU, 0x3bfd868fU, 0xbd3e24eb3b7d868fU, 0xbcfd868fbcddd5bdU,
  0xbcddd5bdbcddd5bdU, 0x3bfd868fbd0e9bb0U, 0x3cfd868f3c9e7419U, 0xbc7d868fbbfd868fU,
  0xbb7d868fbb7d868fU, 0xbd0e9bb03b7d868fU, 0xbbfd868f3c3e24ebU, 0xbcfd868fbd1e7419U,
  0x3c3e24ebbcbe24ebU, 0xbd3e24ebbc3e24ebU, 0x3c3e24eb3cbe24ebU, 0x3bfd868f3c9e7419U,
  0xbd1e7419U, 0xbbfd868fbd2e4c82U, 0xbd1e7419bd0e9bb0U, 0x3c3e24eb3cbe24ebU,
  0x3cbe24ebbc3e24ebU, 0x3d0e9bb0bcfd868fU, 0xbd1e7419bbfd868fU, 0x3bfd868f3bfd868fU,
  0xbd0e9bb0bd3e24ebU, 0x3cddd5bdbc9e7419U, 0xbd0e9bb0U, 0x3c9e7419bb7d868fU,
  0x3d2e4c823cbe24ebU, 0xbc9e7419bd1e7419U, 0x3bfd868f3cfd868fU, 0xbcbe24ebbd0e9bb0U,
  0x0U, 0xbd3e24eb3bfd868fU, 0xbc7d868f3c9e7419U, 0xbbfd868fbd2e4c82U,
  0x3c7d868fbc7d868fU, 0x3cddd5bdbd0e9bb0U, 0x3cddd5bdbc3e24ebU, 0x3cddd5bd3bfd868fU,
  0x3c7d868fbcfd868fU, 0x3b7d868fbd1e7419U, 0x3c9e74193c3e24ebU, 0xbc7d868fbd0e9bb0U,
  0x3cbe24ebbcddd5bdU, 0x3cfd868f3cddd5bdU, 0xbcddd5bdbcbe24ebU, 0xbc3e24ebbcddd5bdU,
  0x3c7d868fbb7d868fU, 0x3d0e9bb03c3e24ebU, 0x3b7d868fbbfd868fU, 0x3cbe24eb3b7d868fU,
  0xbbfd868f3c3e24ebU, 0x3d0e9bb0bc7d868fU, 0xbc9e7419bd3e24ebU, 0x3cfd868fbcbe24ebU,
  0x3d0e9bb03c9e7419U, 0xbb7d868f3cfd868fU, 0xbb7d868f3d1e7419U, 0x3c3e24eb3cddd5bdU,
  0xbd1e7419bd1e7419U, 0x3c7d868fbd2e4c82U, 0x3b7d868f3cfd868fU, 0xbc3e24eb3c9e7419U,
  0xbb7d868fbcbe24ebU, 0x3d0e9bb03b7d868fU, 0xbcddd5bdbcddd5bdU, 0xbbfd868fbd0e9bb0U,
  0xbbfd868fbd0e9bb0U, 0xbd0e9bb03d1e7419U, 0xbcddd5bdbcddd5bdU, 0x3c9e74193c3e24ebU,
  0x3c7d868f3c9e7419U, 0xbd0e9bb0bb7d868fU, 0xbc3e24ebbc3e24ebU, 0xbd2e4c823b7d868fU,
  0xbd1e7419bd0e9bb0U, 0x3cddd5bd3cbe24ebU, 0x3cbe24eb3cddd5bdU, 0xbcfd868fbd1e7419U,
  0x3c7d868fbd1e7419U, 0xbd3e24ebbc7d868fU, 0xbcbe24eb3cbe24ebU, 0x3cddd5bdbc9e7419U,
  0x3bfd868fbc7d868fU, 0xbb7d868fbbfd868fU, 0x3bfd868fbbfd868fU, 0x3cfd868f3d0e9bb0U,
  0x3c7d868fbcfd868fU, 0x3cddd5bd3cfd868fU, 0xbc3e24eb3cddd5bdU, 0xbcddd5bdbc7d868fU,
  0x3c9e74193d2e4c82U, 0x3cbe24eb3b7d868fU, 0x3c9e74193c7d868fU, 0xbbfd868fbd2e4c82U,
  0xbc9e7419bbfd868fU, 0x3c3e24eb3b7d868fU, 0xbd0e9bb03cfd868fU, 0x3cfd868f3cbe24ebU,
  0xbbfd868f3d0e9bb0U, 0x3c9e7419bcfd868fU, 0x3d0e9bb03cddd5bdU, 0x3d0e9bb03bfd868fU,
  0xbc7d868fU, 0x3d1e74193cfd868fU, 0x3d1e7419bd2e4c82U, 0xbd4dfd54bbfd868fU,
  0xbc3e24ebbc7d868fU, 0xbc9e74193d2e4c82U, 0x3cddd5bd00000000U, 0xbbfd868f3d0e9bb0U,
  0xbc9e7419bbfd868fU, 0xbcddd5bd3c3e24ebU, 0x3c7d868f3c9e7419U, 0xbb7d868fbcbe24ebU,
  0xbc7d868fbcfd868fU, 0x3d0e9bb0bd2e4c82U, 0xbc9e74193c9e7419U, 0xbcbe24eb3c7d868fU,
  0x3c7d868fbd2e4c82U, 0x3cbe24ebbd0e9bb0U, 0x3c3e24ebbb7d868fU, 0x3cfd868f3c9e7419U,
  0x3c9e7419bc9e7419U, 0xbd0e9bb0bb7d868fU, 0x3cbe24ebbc7d868fU, 0xbb7d868f3cddd5bdU,
  0x3d0e9bb03d2e4c82U, 0x3c7d868fbd1e7419U, 0xbd2e4c823c3e24ebU, 0x3cddd5bdbc7d868fU,
  0xbbfd868fbcfd868fU, 0xbb7d868fbcddd5bdU, 0x3c9e74193c9e7419U, 0xbc9e7419bcfd868fU,
  0x3b7d868f3bfd868fU, 0x3bfd868fbb7d868fU, 0xbc9e7419U, 0x3cddd5bd3c7d868fU,
  0x3c9e7419U, 0xbd0e9bb0bc3e24ebU, 0x3cfd868fbc3e24ebU, 0xbbfd868fbd2e4c82U,
  0xbb7d868fbc7d868fU, 0xbc3e24ebbbfd868fU, 0xbd0e9bb03d2e4c82U, 0xbcddd5bdbd2e4c82U,
  0x3c9e74193cddd5bdU, 0xbc3e24eb3d2e4c82U, 0x3cfd868f3c9e7419U, 0x3d0e9bb03d1e7419U,
  0x3cbe24eb3c7d868fU, 0xbd1e74193cddd5bdU, 0xbd2e4c82U, 0x3cddd5bdU,
  0xbcfd868fU, 0x3b7d868f3c7d868fU, 0xbd2e4c82bcbe24ebU, 0xbcbe24ebbcfd868fU,
  0x3d0e9bb0bcbe24ebU, 0x3cfd868fbc9e7419U, 0xbc9e74193c9e7419U, 0x3c3e24eb3bfd868fU,
  0x3cfd868fbd0e9bb0U, 0xbc3e24eb3c3e24ebU, 0x3c7d868fbd1e7419U, 0xbd3e24eb3cbe24ebU,
  0xbc3e24ebbc3e24ebU, 0x3d2e4c82bd1e7419U, 0x3c9e7419U, 0xbd3e24eb3cbe24ebU,
  0xbcddd5bdbcddd5bdU, 0x3bfd868f3d1e7419U, 0x3cddd5bd3bfd868fU, 0xbcfd868f00000000U,
  0xbbfd868f3d0e9bb0U, 0xbcfd868f3bfd868fU, 0xbc3e24eb3bfd868fU, 0xbd0e9bb03c3e24ebU,
  0xbd0e9bb000000000U, 0x3b7d868f3cfd868fU, 0xbd0e9bb0bcbe24ebU, 0x3d0e9bb03cddd5bdU,
  0x3cddd5bdbd2e4c82U, 0xbbfd868fbc7d868fU, 0xbd0e9bb0bc3e24ebU, 0x3cfd868f3cbe24ebU,
  0xbcbe24ebbc3e24ebU, 0xbc9e74193bfd868fU, 0xbd0e9bb03bfd868fU, 0xbd3e24eb3d2e4c82U,
  0xbd1e74193c3e24ebU, 0x3c9e74193c7d868fU, 0xbd3e24eb00000000U, 0xbc9e7419bbfd868fU,
  0xbbfd868fbc9e7419U, 0x3c7d868fU, 0x3c3e24ebbd1e7419U, 0xbd1e74193c7d868fU,
  0x3c7d868fbbfd868fU, 0xbbfd868fbd1e7419U, 0xbbfd868fbd3e24ebU, 0x3c3e24ebbd0e9bb0U,
  0xbc9e74193d0e9bb0U, 0x3cddd5bdbcfd868fU, 0xbbfd868fbd0e9bb0U, 0x3b7d868f3cfd868fU,
  0xbc3e24ebbd2e4c82U, 0xbcbe24ebbd0e9bb0U, 0xbcfd868fbd1e7419U, 0x3cddd5bd3d0e9bb0U,
  0xbbfd868fbbfd868fU, 0x3c7d868fbd1e7419U, 0xbbfd868fU, 0xbcddd5bd3d2e4c82U,
  0xbc3e24ebU, 0xbcfd868fbcbe24ebU, 0xbd0e9bb03c9e7419U, 0xbcddd5bdbc7d868fU,
  0x3bfd868f3cddd5bdU, 0xbcfd868f3c3e24ebU, 0x3c7d868f3cbe24ebU, 0x3cddd5bdbb7d868fU,
  0xbcbe24ebbc7d868fU, 0x3c3e24ebbd3e24ebU, 0xbd1e74193c7d868fU, 0x3c3e24eb3b7d868fU,
  0xbd3e24ebbbfd868fU, 0xbd1e7419bcddd5bdU, 0x3bfd868f3cddd5bdU, 0x3bfd868fbcfd868fU,
  0x3cfd868f3cfd868fU, 0x3d1e74193b7d868fU, 0x3c3e24ebbbfd868fU, 0xbd0e9bb03b7d868fU,
  0xbcfd868f3cddd5bdU, 0xbd2e4c82bb7d868fU, 0x3cfd868fbd1e7419U, 0xbd1e74193cfd868fU,
  0xbcfd868fbcfd868fU, 0x3c7d868fbd3e24ebU, 0xbb7d868f3c7d868fU, 0x3cfd868fbb7d868fU,
  0x3c3e24ebbc3e24ebU, 0xbd3e24eb3d0e9bb0U, 0x3c3e24ebbcddd5bdU, 0x3cfd868fbc3e24ebU,
  0xbd1e74193d0e9bb0U, 0xbcddd5bdbc9e7419U, 0xbcbe24ebbcddd5bdU, 0xbd2e4c82bbfd868fU,
  0x3d0e9bb03cfd868fU, 0x3c7d868f3d1e7419U, 0xbbfd868fU, 0xbcbe24ebbd3e24ebU,
  0x3cbe24ebbc9e7419U, 0xbd2e4c82bc9e7419U, 0xbd1e74193d1e7419U, 0xbc3e24ebbb7d868fU,
  0x3c7d868f3c3e24ebU, 0xbcfd868fbcfd868fU, 0xbb7d868fbd0e9bb0U, 0x3cbe24eb3c9e7419U,
  0xbbfd868f3cddd5bdU, 0x3d0e9bb03bfd868fU, 0xbd3e24ebU, 0x3c7d868f3b7d868fU,
  0x3cfd868fbcfd868fU, 0xbc3e24ebbc9e7419U, 0x3d1e74193d0e9bb0U, 0x3cfd868fbc3e24ebU,
  0xbcbe24eb3c9e7419U, 0xbd0e9bb0bd0e9bb0U, 0x3c3e24ebbd0e9bb0U, 0xbd1e7419U,
  0x3c9e7419bd1e7419U, 0xbc3e24eb3bfd868fU, 0x3bfd868f3b7d868fU, 0xbb7d868fbb7d868fU,
  0xbd1e74193cddd5bdU, 0x3b7d868f00000000U, 0x3b7d868fbd4dfd54U, 0xbd3e24ebbc3e24ebU,
  0x3c3e24eb3c9e7419U, 0xbcfd868fU, 0x3c7d868f3cfd868fU, 0x3c7d868fbbfd868fU,
  0xbb7d868f00000000U, 0x3d0e9bb03cddd5bdU, 0xbc7d868fbcbe24ebU, 0xbd0e9bb000000000U,
  0xbcfd868f3c7d868fU, 0xbd1e7419bc7d868fU, 0x3bfd868fbcddd5bdU, 0xbc9e74193cfd868fU,
  0xbc9e7419U, 0x3d1e74193bfd868fU, 0x3d2e4c82bcbe24ebU, 0x3d0e9bb03cfd868fU,
  0xbc7d868fbc9e7419U, 0xbd3e24ebU, 0xbd3e24eb3d1e7419U, 0x3d0e9bb03cddd5bdU,
  0xbc3e24ebbbfd868fU, 0x3cfd868fbcfd868fU, 0xbd1e74193cbe24ebU, 0x0U,
  0xbd2e4c823bfd868fU, 0xbc3e24eb00000000U, 0xbc9e74193cbe24ebU, 0x3bfd868fbcbe24ebU,
  0x3d0e9bb03c3e24ebU, 0x3d2e4c823cfd868fU, 0xbb7d868f3cddd5bdU, 0x3d0e9bb0bc3e24ebU,
  0xbd1e741900000000U, 0xbcddd5bd3cfd868fU, 0xbcbe24eb3c9e7419U, 0xbcddd5bd3c3e24ebU,
  0x3c7d868f3d0e9bb0U, 0x3cfd868fbd0e9bb0U, 0x3bfd868f00000000U, 0xbd0e9bb0bd2e4c82U,
  0x3d0e9bb03c9e7419U, 0x3b7d868fbd1e7419U, 0x3cddd5bd3c7d868fU, 0x3cbe24ebbcddd5bdU,
  0xbcfd868f3c9e7419U, 0xbc3e24ebbcfd868fU, 0xbcddd5bdbc3e24ebU, 0x3cddd5bdbcbe24ebU,
  0xbc7d868f3cddd5bdU, 0xbd2e4c82bcfd868fU, 0x3d0e9bb03d2e4c82U, 0x3d0e9bb0bbfd868fU,
  0xbd0e9bb0bd2e4c82U, 0x3b7d868fbd0e9bb0U, 0x3cddd5bd3c3e24ebU, 0xbd4dfd54bcddd5bdU,
  0x3c3e24ebbb7d868fU, 0x3c9e74193b7d868fU, 0x3cddd5bdbd2e4c82U, 0xbd1e7419bc7d868fU,
  0xbb7d868f3d0e9bb0U, 0xbb7d868f3d0e9bb0U, 0x3d0e9bb03cbe24ebU, 0xbd2e4c82bcbe24ebU,
  0xbcfd868fbb7d868fU, 0x3c7d868f3d0e9bb0U, 0xbb7d868f3c9e7419U, 0x3cbe24ebbcfd868fU,
  0x3cfd868fbd2e4c82U, 0x3d0e9bb000000000U, 0xbd4dfd54bd1e7419U, 0xbc7d868fbb7d868fU,
  0x3cddd5bdbcfd868fU, 0x3bfd868fbd2e4c82U, 0xbcbe24eb3b7d868fU, 0xbd1e74193c9e7419U,
  0xbc7d868f3cfd868fU, 0x3d2e4c82bc9e7419U, 0x3c9e7419bbfd868fU, 0x3b7d868f3d0e9bb0U,
  0xbcddd5bdbbfd868fU, 0x3c7d868f3b7d868fU, 0xbc7d868f3d1e7419U, 0xbc9e74193c3e24ebU,
  0xbb7d868fbcddd5bdU, 0x3c7d868fbd0e9bb0U, 0xbc3e24eb3b7d868fU, 0xbc3e24eb3c9e7419U,
  0xbc7d868fbc9e7419U, 0xbd2e4c82bcddd5bdU, 0xbd1e74193c3e24ebU, 0xbb7d868f3cbe24ebU,
  0xbd1e7419bc7d868fU, 0x3d1e74193c7d868fU, 0xbcddd5bdbd2e4c82U, 0x3c7d868fbc7d868fU,
  0x3cbe24ebbd0e9bb0U, 0x3c9e7419bb7d868fU, 0x3cbe24ebbd0e9bb0U, 0xbcbe24eb3d1e7419U,
  0xbb7d868fbcfd868fU, 0x3c7d868f3bfd868fU, 0xbbfd868f3c7d868fU, 0xbc7d868fbd3e24ebU,
  0xbc7d868f3d0e9bb0U, 0xbd2e4c82bb7d868fU, 0xbb7d868fbcbe24ebU, 0x3c3e24eb3c7d868fU,
  0xbcddd5bd3bfd868fU, 0x3c9e7419bb7d868fU, 0x3bfd868f3cbe24ebU, 0xbbfd868fbcddd5bdU,
  0x3d0e9bb0bcddd5bdU, 0xbbfd868f3d0e9bb0U, 0x3d0e9bb03c7d868fU, 0x3cddd5bd3c9e7419U,
  0x3cddd5bdbc9e7419U, 0xbd1e7419bd1e7419U, 0xbc9e74193b7d868fU, 0x3d1e7419bc3e24ebU,
  0xbd0e9bb0bcbe24ebU, 0xbd0e9bb0bbfd868fU, 0x3d0e9bb03bfd868fU, 0xbd3e24eb3cbe24ebU,
  0xbd0e9bb03c9e7419U, 0x3d1e74193c7d868fU, 0x3b7d868fbd2e4c82U, 0xbd1e7419bb7d868fU,
  0x3c9e74193cddd5bdU, 0x3c9e7419bbfd868fU, 0xbd2e4c823c3e24ebU, 0x3cfd868fbd2e4c82U,
  0xbbfd868f3d1e7419U, 0xbcddd5bd3c9e7419U, 0xbd1e74193c7d868fU, 0xbd1e74193cddd5bdU,
  0xbc9e74193d2e4c82U, 0xbd2e4c823d2e4c82U, 0x3cbe24ebbd1e7419U, 0xbc7d868fU,
  0x3bfd868fbcbe24ebU, 0xbbfd868fbd3e24ebU, 0x3d0e9bb0bbfd868fU, 0xbd4dfd54bc7d868fU,
  0x3d1e74193cddd5bdU, 0xbd0e9bb03c7d868fU, 0x3c7d868fU, 0xbcfd868f3bfd868fU,
  0x3d0e9bb0bc9e7419U, 0xbcddd5bd00000000U, 0xbcfd868f3c7d868fU, 0x3cbe24eb3c7d868fU,
  0x3c9e74193b7d868fU, 0xbbfd868f3b7d868fU, 0xbcddd5bdbcbe24ebU, 0x3d0e9bb0bc7d868fU,
  0xbcfd868f3cddd5bdU, 0x3bfd868fbd0e9bb0U, 0xbd1e74193cddd5bdU, 0x3cddd5bd3c9e7419U,
  0x3cbe24ebU, 0x3cbe24eb3cfd868fU, 0x3d0e9bb03c3e24ebU, 0xbcddd5bd3c9e7419U,
  0x3d0e9bb0U, 0x3cddd5bdbb7d868fU, 0x3d0e9bb000000000U, 0x3c3e24ebbd3e24ebU,
  0x3c7d868fbd1e7419U, 0xbc7d868f3d2e4c82U, 0x3cfd868fbcfd868fU, 0x3c3e24eb3c3e24ebU,
  0x3cbe24eb3bfd868fU, 0x3b7d868f3bfd868fU, 0xbc3e24ebbd4dfd54U, 0x3cddd5bd3d0e9bb0U,
  0x3cbe24ebbcbe24ebU, 0x3cddd5bd3b7d868fU, 0x3cddd5bdbc7d868fU, 0xbcddd5bdbd2e4c82U,
  0x3cddd5bd3c7d868fU, 0xbb7d868fbcfd868fU, 0x3c3e24ebbd0e9bb0U, 0xbd1e7419bcfd868fU,
  0x3b7d868fbd0e9bb0U, 0xbc7d868f3cbe24ebU, 0x3c7d868f3c9e7419U, 0xbcfd868fbcddd5bdU,
  0xbcddd5bd3c7d868fU, 0x3b7d868fbb7d868fU, 0xbcfd868f3cbe24ebU, 0x3b7d868fbd4dfd54U,
  0x3c9e7419bcddd5bdU, 0xbb7d868fbcfd868fU, 0xbcfd868fU, 0xbbfd868fbd0e9bb0U,
  0xbb7d868fbc7d868fU, 0xbcfd868fU, 0xbc7d868fbd2e4c82U, 0xbd1e7419bd1e7419U,
  0xbd1e74193d0e9bb0U, 0xbd3e24ebbd1e7419U, 0xbbfd868fbcfd868fU, 0x3b7d868fbcbe24ebU,
  0xbcddd5bdbd3e24ebU, 0x3cddd5bd3cddd5bdU, 0xbcbe24eb3c9e7419U, 0x3cbe24eb3bfd868fU,
  0x3cbe24ebbbfd868fU, 0xbd3e24eb00000000U, 0x3c7d868f3c7d868fU, 0x3cbe24ebbc3e24ebU,
  0xbd3e24ebbd0e9bb0U, 0xbd1e74193bfd868fU, 0x3b7d868fbb7d868fU, 0xbbfd868f3c9e7419U,
  0x3c7d868f3c7d868fU, 0xbc9e7419bd0e9bb0U, 0x3bfd868f3c7d868fU, 0x3bfd868f3d2e4c82U,
  0x3bfd868fbcddd5bdU, 0x3b7d868f3c7d868fU, 0x3c3e24ebU, 0xbcddd5bdbcddd5bdU,
  0xbcfd868f00000000U, 0xbc9e7419bcddd5bdU, 0x3b7d868f3d1e7419U, 0x3bfd868fbc9e7419U,
  0xbb7d868fbc9e7419U, 0xbc3e24eb3b7d868fU, 0xbc9e7419bb7d868fU, 0x3cddd5bdU,
  0xbc9e741900000000U, 0xbd1e7419bd1e7419U, 0xbcddd5bd3b7d868fU, 0x3cfd868f3d2e4c82U,
  0x3c9e7419bbfd868fU, 0xbc3e24ebbbfd868fU, 0x3b7d868fbd1e7419U, 0xbbfd868fbd1e7419U,
  0x3b7d868fbbfd868fU, 0x3b7d868f3c7d868fU, 0xbd2e4c823b7d868fU, 0xbd4dfd54bc7d868fU,
  0x3cfd868fbcfd868fU, 0x3cfd868fbbfd868fU, 0xbcddd5bdU, 0xbcddd5bdbcfd868fU,
  0x3b7d868fbd1e7419U, 0xbd1e7419bcfd868fU, 0x3d0e9bb0bcbe24ebU, 0x3c7d868f3bfd868fU,
  0xbb7d868fbc9e7419U, 0xbd1e7419bcddd5bdU, 0xbbfd868fbc7d868fU, 0xbd3e24ebbd0e9bb0U,
  0xbc3e24ebbc9e7419U, 0x3cfd868f3b7d868fU, 0xbc7d868f3cddd5bdU, 0x3d0e9bb0bcddd5bdU,
  0xbd4dfd543c3e24ebU, 0x3cfd868fbd1e7419U, 0x3bfd868fbc7d868fU, 0xbd3e24eb3c9e7419U,
  0x3d0e9bb03c7d868fU, 0xbc9e74193c3e24ebU, 0xbc7d868f3c7d868fU, 0xbd1e7419bcbe24ebU,
  0x3c7d868fbc3e24ebU, 0xbd0e9bb0bd1e7419U, 0x3c9e7419U, 0xbd0e9bb0bd4dfd54U,
  0xbcddd5bd3c7d868fU, 0xbd1e7419bbfd868fU, 0xbd2e4c82bd2e4c82U, 0x3d1e7419U,
  0xbd1e74193b7d868fU, 0x3b7d868fbcddd5bdU, 0x3c9e74193cfd868fU, 0x3cbe24ebbd1e7419U,
  0xbc7d868fU, 0xbc9e74193d1e7419U, 0xbcddd5bd3b7d868fU, 0xbc3e24eb00000000U,
  0xbd0e9bb0U, 0x3d1e74193c9e7419U, 0xbcbe24eb3d0e9bb0U, 0x3d0e9bb03d0e9bb0U,
  0xbcddd5bdbd2e4c82U, 0xbbfd868fbcfd868fU, 0xbd0e9bb03c3e24ebU, 0xbcfd868f00000000U,
  0xbd3e24ebbc9e7419U, 0xbd1e7419bb7d868fU, 0xbbfd868f3c7d868fU, 0x3c7d868f3b7d868fU,
  0x3cbe24eb3b7d868fU, 0xbb7d868fbc3e24ebU, 0x3c9e74193c9e7419U, 0xbb7d868f3cbe24ebU,
  0xbc9e7419bcddd5bdU, 0xbbfd868f3cbe24ebU, 0xbd1e7419bcddd5bdU, 0x3bfd868fbd2e4c82U,
  0xbcddd5bd3c9e7419U, 0xbcfd868fbcddd5bdU, 0xbc7d868fbc3e24ebU, 0xbc3e24eb3cddd5bdU,
  0x3cbe24eb3d2e4c82U, 0xbd3e24ebbcfd868fU, 0x3cfd868f3d2e4c82U, 0x3d0e9bb0bbfd868fU,
  0x3cfd868f3c9e7419U, 0xbcfd868f3c9e7419U, 0xbd2e4c82bc7d868fU, 0xbd0e9bb03cfd868fU,
  0xbc9e7419bcbe24ebU, 0x3cddd5bd3cbe24ebU, 0x3cddd5bdbc3e24ebU, 0x3c9e7419bd0e9bb0U,
  0x3d2e4c823c7d868fU, 0x3cbe24eb3b7d868fU, 0xbd0e9bb0bc7d868fU, 0xbcbe24ebbc3e24ebU,
  0x3cbe24eb3c9e7419U, 0xbcddd5bd3bfd868fU, 0xbd2e4c823cfd868fU, 0xbcfd868fbd3e24ebU,
  0xbcbe24ebbcfd868fU, 0xbd4dfd54bcbe24ebU, 0xbd1e74193c9e7419U, 0x3d0e9bb03cfd868fU,
  0x3c3e24ebbc3e24ebU, 0xbb7d868fbd3e24ebU, 0x3c9e7419bb7d868fU, 0xbcbe24ebbcfd868fU,
  0xbbfd868f3c3e24ebU, 0x3b7d868f3cbe24ebU, 0x3bfd868f3d0e9bb0U, 0x3cfd868f3cddd5bdU,
  0xbc3e24eb3c7d868fU, 0x3cfd868f3cddd5bdU, 0x3c7d868fbc7d868fU, 0x3d0e9bb03b7d868fU,
  0x3cddd5bdbd2e4c82U, 0xbcfd868f3cbe24ebU, 0xbd2e4c823cddd5bdU, 0x3cbe24ebbbfd868fU,
  0xbcbe24ebU, 0xbd1e7419bc3e24ebU, 0xbcddd5bdbcddd5bdU, 0xbc3e24eb3cddd5bdU,
  0xbcbe24eb3c7d868fU, 0x3cfd868f3cbe24ebU, 0x3b7d868fbb7d868fU, 0x3cfd868fbc3e24ebU,
  0xbd4dfd543cddd5bdU, 0xbbfd868fbd3e24ebU, 0xbd0e9bb03cddd5bdU, 0xbd0e9bb03c9e7419U,
  0xbcfd868fbd0e9bb0U, 0xbd0e9bb0bd0e9bb0U, 0x3d1e74193b7d868fU, 0x3cbe24eb3b7d868fU,
  0xbd2e4c823cbe24ebU, 0xbbfd868f3cddd5bdU, 0x3c3e24ebbc9e7419U, 0xbd0e9bb0bcfd868fU,
  0x3b7d868fbcfd868fU, 0xbd2e4c823c9e7419U, 0x3b7d868f3c9e7419U, 0x3cbe24ebbd2e4c82U,
  0xbc9e74193bfd868fU, 0xbd0e9bb0bcbe24ebU, 0xbcbe24ebbcfd868fU, 0x3c3e24eb3cbe24ebU,
  0xbd1e7419bc3e24ebU, 0x3c3e24eb3c9e7419U, 0x3bfd868fU, 0x3d0e9bb03c9e7419U,
  0x3cfd868fbc3e24ebU, 0x3b7d868f3d0e9bb0U, 0x3b7d868fbd0e9bb0U, 0x3c9e7419bbfd868fU,
  0xbcfd868fbcfd868fU, 0xbb7d868f3cddd5bdU, 0xbc9e7419bd0e9bb0U, 0x3c3e24ebbc9e7419U,
  0xbb7d868f00000000U, 0xbc3e24eb3c3e24ebU, 0xbcddd5bd3d2e4c82U, 0xbc3e24eb3c7d868fU,
  0x3cddd5bdbbfd868fU, 0xbcbe24ebbd1e7419U, 0x3cddd5bdbcddd5bdU, 0xbcbe24eb00000000U,
  0xbc7d868fbd0e9bb0U, 0xbd2e4c82bb7d868fU, 0xbd1e7419bd2e4c82U, 0x3c3e24ebbcddd5bdU,
  0x3cbe24ebbc3e24ebU, 0xbd0e9bb03d0e9bb0U, 0x3cbe24eb3c9e7419U, 0xbd0e9bb0bc9e7419U,
  0xbcfd868fU, 0xbb7d868fbc9e7419U, 0x3cfd868fbbfd868fU, 0x3d0e9bb0bb7d868fU,
  0x3b7d868fbcfd868fU, 0x3b7d868f3d1e7419U, 0x3c7d868fbd3e24ebU, 0xbd3e24eb3bfd868fU,
  0x3bfd868fbd3e24ebU, 0x3b7d868f3b7d868fU, 0xbd2e4c82bd3e24ebU, 0xbcbe24ebbc9e7419U,
  0x3d0e9bb0bd1e7419U, 0xbd1e74193cddd5bdU, 0x3c7d868fbc9e7419U, 0xbcfd868f3c9e7419U,
  0x3d2e4c82U, 0xbbfd868fbbfd868fU, 0xbcddd5bd3d0e9bb0U, 0x3cbe24ebbb7d868fU,
  0xbd3e24eb3bfd868fU, 0xbcddd5bd3b7d868fU, 0xbc3e24eb00000000U, 0xbd1e7419bc9e7419U,
  0x3d0e9bb0bd3e24ebU, 0xbbfd868f3cbe24ebU, 0x3d0e9bb0bc3e24ebU, 0xbd1e7419bcbe24ebU,
  0xbd1e7419bcfd868fU, 0xbcfd868fbc7d868fU, 0x3b7d868f3cddd5bdU, 0xbbfd868f3bfd868fU,
  0xbcddd5bd3cbe24ebU, 0xbb7d868f3cddd5bdU, 0x3c9e74193cbe24ebU, 0xbcfd868fbcfd868fU,
  0xbd0e9bb03bfd868fU, 0xbc9e74193bfd868fU, 0xbd1e74193cddd5bdU, 0xbc9e74193d1e7419U,
  0xbc3e24ebbd0e9bb0U, 0x3d0e9bb0bcbe24ebU, 0x3d2e4c823bfd868fU, 0xbc9e7419bd0e9bb0U,
  0x3cfd868f3d2e4c82U, 0x3cfd868fbcddd5bdU, 0xbcddd5bd3cbe24ebU, 0xbd0e9bb03cbe24ebU,
  0xbbfd868f3cddd5bdU, 0x3cfd868fbcddd5bdU, 0x3bfd868fU, 0xbd0e9bb03b7d868fU,
  0xbc9e7419bc7d868fU, 0x3cfd868fbcfd868fU, 0x3bfd868f3cbe24ebU, 0xbd4dfd543d0e9bb0U,
  0xbc9e74193d0e9bb0U, 0xbc3e24ebbd2e4c82U, 0x3d0e9bb0bcddd5bdU, 0xbc3e24eb3d0e9bb0U,
  0xbc9e7419bcddd5bdU, 0xbcfd868fbd3e24ebU, 0x3c3e24eb3cfd868fU, 0xbcbe24ebbc7d868fU,
  0x3cddd5bdbb7d868fU, 0x3d0e9bb0bcddd5bdU, 0xbc7d868fU, 0x3c9e7419bc7d868fU,
  0xbcddd5bd3c9e7419U, 0xbb7d868fbbfd868fU, 0xbcddd5bd3d0e9bb0U, 0xbc9e74193c9e7419U,
  0xbd1e74193c9e7419U, 0x3cfd868f3bfd868fU, 0xbc9e74193d0e9bb0U, 0xbcddd5bd3cddd5bdU,
  0x3c9e7419bcfd868fU, 0xbc7d868fU, 0xbcbe24eb3d2e4c82U, 0xbc3e24ebbd3e24ebU,
  0xbd2e4c82bcbe24ebU, 0xbc3e24ebbcddd5bdU, 0xbbfd868fU, 0x3cfd868f3c9e7419U,
  0xbd0e9bb03c7d868fU, 0x3c9e74193bfd868fU, 0xbcfd868f3cddd5bdU, 0x3c3e24eb3c7d868fU,
  0x3bfd868fU, 0xbcddd5bdbc9e7419U, 0x3bfd868fbcddd5bdU, 0xbbfd868fbc3e24ebU,
  0xbcddd5bd3cbe24ebU, 0xbb7d868f3d1e7419U, 0xbcddd5bd3d0e9bb0U, 0xbd0e9bb03d2e4c82U,
  0x3cbe24ebbc3e24ebU, 0xbc7d868f3c7d868fU, 0x3d0e9bb03cddd5bdU, 0xbb7d868fbcbe24ebU,
  0x3d0e9bb03d0e9bb0U, 0xbcddd5bd3b7d868fU, 0x3bfd868fbc3e24ebU, 0xbc7d868f3cddd5bdU,
  0xbcbe24ebbd0e9bb0U, 0xbcbe24ebbd0e9bb0U, 0xbc9e741900000000U, 0x3d0e9bb03cddd5bdU,
  0xbcddd5bd3c7d868fU, 0x3c7d868fbcfd868fU, 0xbb7d868f3cfd868fU, 0x3d0e9bb03c9e7419U,
  0x3bfd868fbd0e9bb0U, 0xbcddd5bdbd1e7419U, 0x3d0e9bb0bbfd868fU, 0x3cfd868fbcbe24ebU,
  0x3d0e9bb03cbe24ebU, 0x3c3e24eb3cfd868fU, 0x3d0e9bb0bc3e24ebU, 0xbd3e24eb3cfd868fU,
  0xbcfd868f3cfd868fU, 0x3cbe24ebbcddd5bdU, 0x3c9e7419bcddd5bdU, 0xbbfd868fbc3e24ebU,
  0xbd1e7419bcddd5bdU, 0xbd4dfd543cfd868fU, 0x3d0e9bb03cfd868fU, 0xbd3e24eb3c9e7419U,
  0xbd0e9bb0bc7d868fU, 0x3cddd5bdU, 0x3c9e7419bd2e4c82U, 0x3cfd868f3cfd868fU,
  0xbd0e9bb0bcbe24ebU, 0xbcbe24ebbcbe24ebU, 0x3bfd868f3cbe24ebU, 0xbd2e4c82bd1e7419U,
  0xbc7d868f3b7d868fU, 0xbbfd868f3cbe24ebU, 0xbbfd868fbd2e4c82U, 0xbbfd868f00000000U,
  0x3c3e24eb00000000U, 0xbcfd868fbd1e7419U, 0x3c3e24eb3b7d868fU, 0xbcbe24eb00000000U,
  0xbd0e9bb0bc9e7419U, 0xbc3e24eb3b7d868fU, 0xbd3e24ebbcfd868fU, 0xbc7d868f3cfd868fU,
  0xbd0e9bb03b7d868fU, 0x3c3e24ebbcfd868fU, 0x3c7d868f00000000U, 0x3c3e24eb3c3e24ebU,
  0xbcbe24ebbd2e4c82U, 0xbcfd868fbb7d868fU, 0x3d1e7419bd3e24ebU, 0x3c3e24ebbcfd868fU,
  0x3d2e4c82bcbe24ebU, 0xbcbe24ebbcbe24ebU, 0xbd1e74193c9e7419U, 0x3b7d868f3cbe24ebU,
  0xbd0e9bb0bb7d868fU, 0x3bfd868f3c7d868fU, 0xbc7d868f3d2e4c82U, 0xbcddd5bd3bfd868fU,
  0xbcbe24eb3c3e24ebU, 0xbc3e24eb3b7d868fU, 0x3c3e24eb3d0e9bb0U, 0xbcddd5bd3d0e9bb0U,
  0x3c9e74193bfd868fU, 0xbbfd868f00000000U, 0xbbfd868fbcddd5bdU, 0x3bfd868fbcddd5bdU,
  0x3c3e24ebbc3e24ebU, 0xbc3e24ebbd0e9bb0U, 0x3b7d868f3d2e4c82U, 0x3bfd868fbc3e24ebU,
  0xbc7d868fbcbe24ebU, 0x3b7d868fbd2e4c82U, 0x3bfd868fbcddd5bdU, 0xbd4dfd543b7d868fU,
  0xbd2e4c823cfd868fU, 0x3c3e24ebbc7d868fU, 0xbcfd868fbcbe24ebU, 0xbd3e24eb3cfd868fU,
  0x3d1e7419bc9e7419U, 0xbc3e24ebbd0e9bb0U, 0xbb7d868fbcfd868fU, 0xbc3e24eb3d0e9bb0U,
  0x3cfd868fbc9e7419U, 0x3c7d868f3c7d868fU, 0xbd3e24ebbc7d868fU, 0xbd3e24eb3d2e4c82U,
  0xbb7d868fU, 0x3cddd5bd3c9e7419U, 0xbd1e74193cfd868fU, 0xbc3e24eb3cddd5bdU,
  0x3c9e74193cfd868fU, 0xbc9e7419bcbe24ebU, 0xbd3e24eb3cbe24ebU, 0x3cfd868fU,
  0xbcbe24ebbd4dfd54U, 0xbb7d868f3cbe24ebU, 0xbbfd868fbd0e9bb0U, 0xbc7d868fbc9e7419U,
  0x3c9e74193bfd868fU, 0xbc9e7419bc9e7419U, 0x3cfd868f3c7d868fU, 0x3cddd5bd3b7d868fU,
  0xbc9e74193d2e4c82U, 0x3c3e24ebbcbe24ebU, 0x3d0e9bb03cfd868fU, 0xbc3e24eb3cbe24ebU,
  0x3c9e74193b7d868fU, 0x3c7d868f3cddd5bdU, 0xbcfd868f3bfd868fU, 0xbd1e7419bbfd868fU,
  0xbcddd5bdbb7d868fU, 0xbd1e74193cfd868fU, 0xbbfd868fbd2e4c82U, 0xbc7d868fbc9e7419U,
  0xbcddd5bdbc3e24ebU, 0xbd1e7419bd0e9bb0U, 0xbb7d868f3cfd868fU, 0xbcfd868f3cddd5bdU,
  0xbc3e24eb3cbe24ebU, 0x3cddd5bd3d0e9bb0U, 0x3b7d868f3bfd868fU, 0xbd2e4c823c3e24ebU,
  0x3bfd868f3b7d868fU, 0x3c9e7419bcddd5bdU, 0xbc9e7419bd3e24ebU, 0x3d0e9bb0bd2e4c82U,
  0xbd0e9bb03c3e24ebU, 0xbd2e4c823c7d868fU, 0xbcbe24eb3c9e7419U, 0xbc3e24eb3d0e9bb0U,
  0xbcddd5bdbc3e24ebU, 0xbbfd868f3c7d868fU, 0xbc9e741900000000U, 0xbd0e9bb03cfd868fU,
  0xbc3e24eb3cddd5bdU, 0xbd2e4c82bd1e7419U, 0x3cbe24ebbbfd868fU, 0x3cddd5bdbbfd868fU,
  0xbd3e24ebbd0e9bb0U, 0xbd2e4c82bc7d868fU, 0xbcbe24eb3c9e7419U, 0x3cddd5bd3d1e7419U,
  0xbbfd868fbd0e9bb0U, 0x3b7d868f3c9e7419U, 0x3d2e4c82bd3e24ebU, 0xbbfd868fbd1e7419U,
  0xbd1e74193c7d868fU, 0xbb7d868f3c3e24ebU, 0x3cfd868f3d2e4c82U, 0x3d1e7419bc7d868fU,
  0xbd2e4c82bb7d868fU, 0xbbfd868f3c7d868fU, 0xbbfd868fbd2e4c82U, 0xbc7d868f3bfd868fU,
  0xbd3e24ebbd1e7419U, 0xbcbe24ebbc9e7419U, 0x3cddd5bd3c3e24ebU, 0xbc3e24eb3c7d868fU,
  0x3d0e9bb0U, 0x3cddd5bdbc3e24ebU, 0x3bfd868f3c7d868fU, 0x3b7d868fbd1e7419U,
  0x3d2e4c82bc3e24ebU, 0x3c7d868f3c3e24ebU, 0x3c7d868fU, 0x3bfd868fbc9e7419U,
  0xbcbe24ebU, 0x3bfd868fbb7d868fU, 0x3cbe24eb3cddd5bdU, 0x3d0e9bb03cbe24ebU,
  0x3d0e9bb0bc7d868fU, 0x0U, 0x3bfd868f3c3e24ebU, 0x3d0e9bb03cbe24ebU,
  0xbc9e7419bcbe24ebU, 0x3cbe24ebbd3e24ebU, 0x3c7d868f3d0e9bb0U, 0x3c7d868fbc7d868fU,
  0x3d0e9bb0bc9e7419U, 0x3d1e741900000000U, 0xbd3e24eb3cbe24ebU, 0xbc7d868fbcfd868fU,
  0xbcbe24ebbb7d868fU, 0xbb7d868fbc3e24ebU, 0xbc3e24ebbc3e24ebU, 0xbcfd868f3cddd5bdU,
  0xbc9e74193c9e7419U, 0x3cddd5bd3c3e24ebU, 0x3cddd5bd3c7d868fU, 0x3c3e24eb00000000U,
  0xbd2e4c823bfd868fU, 0x3bfd868fbb7d868fU, 0xbcddd5bdbb7d868fU, 0xbd2e4c8200000000U,
  0x3d0e9bb03cbe24ebU, 0x3d0e9bb0bcbe24ebU, 0xbcbe24eb3c9e7419U, 0xbd0e9bb0bc9e7419U,
  0x3cbe24ebbb7d868fU, 0xbd3e24ebbc7d868fU, 0xbc9e741900000000U, 0xbbfd868fbd2e4c82U,
  0xbc3e24ebbd0e9bb0U, 0x3cbe24eb3d2e4c82U, 0xbd0e9bb03bfd868fU, 0x3d0e9bb03cfd868fU,
  0xbcddd5bdbd1e7419U, 0x3d2e4c82bd2e4c82U, 0x3d1e7419bd3e24ebU, 0x3c9e7419bb7d868fU,
  0xbd0e9bb0bbfd868fU, 0x3c7d868fbc3e24ebU, 0x3c3e24eb3d2e4c82U, 0x3d0e9bb0bc7d868fU,
  0xbc9e74193cddd5bdU, 0xbd3e24ebbcfd868fU, 0x3bfd868fbd1e7419U, 0xbd3e24ebbd3e24ebU,
  0xbc3e24eb3c9e7419U, 0x3c3e24ebbbfd868fU, 0x3cddd5bdbb7d868fU, 0xbcddd5bd3cbe24ebU,
  0xbbfd868fbd1e7419U, 0xbcfd868fbd0e9bb0U, 0xbd1e74193c3e24ebU, 0xbd4dfd54bc9e7419U,
  0xbc7d868f3c7d868fU, 0xbd3e24ebbcfd868fU, 0xbcddd5bd00000000U, 0xbd2e4c823cddd5bdU,
  0x3bfd868fbcbe24ebU, 0xbc7d868f3d0e9bb0U, 0x3c7d868fbd1e7419U, 0xbcddd5bdbd1e7419U,
  0x3cddd5bd3c7d868fU, 0x3cbe24eb3d1e7419U, 0x3cddd5bdbd0e9bb0U, 0xbcbe24ebbcddd5bdU,
  0xbcbe24ebbc9e7419U, 0x3cfd868f3c9e7419U, 0xbcbe24ebbc3e24ebU, 0x3cbe24ebbd0e9bb0U,
  0xbd0e9bb0bc7d868fU, 0x3c7d868f3c3e24ebU, 0x3b7d868fbc9e7419U, 0x3c9e74193cbe24ebU,
  0xbd0e9bb03c3e24ebU, 0xbb7d868fbd1e7419U, 0x3cbe24ebbbfd868fU, 0xbc7d868f3c9e7419U,
  0x3cbe24ebbd0e9bb0U, 0xbcfd868fbc9e7419U, 0xbcddd5bdbcbe24ebU, 0xbc7d868f3c7d868fU,
  0x3d1e7419bc9e7419U, 0x3cddd5bdbc3e24ebU, 0x3c3e24ebbbfd868fU, 0x3cbe24ebbbfd868fU,
  0xbbfd868f3c9e7419U, 0xbcbe24ebbbfd868fU, 0x3bfd868f3bfd868fU, 0x3c3e24ebbd1e7419U,
  0xbcfd868f3c9e7419U, 0xbcddd5bd3cbe24ebU, 0xbcbe24eb3d2e4c82U, 0xbd3e24eb00000000U,
  0xbb7d868f3b7d868fU, 0x3c7d868f3c3e24ebU, 0xbc3e24eb3c3e24ebU, 0xbc7d868fbc3e24ebU,
  0xbd1e7419bc9e7419U, 0x3cbe24eb3cddd5bdU, 0x3c7d868fbd0e9bb0U, 0xbb7d868f3d0e9bb0U,
  0x3bfd868fU, 0xbcbe24ebbcbe24ebU, 0x3d0e9bb0bcfd868fU, 0xbc7d868f00000000U,
  0xbc3e24eb3b7d868fU, 0xbbfd868fbc9e7419U, 0xbcddd5bdbb7d868fU, 0x3b7d868fbcfd868fU,
  0x3cddd5bd3c7d868fU, 0xbcfd868f3c3e24ebU, 0xbc7d868fbd0e9bb0U, 0x3bfd868f3d0e9bb0U,
  0x3cfd868f3bfd868fU, 0x3cbe24ebbcddd5bdU, 0xbd2e4c823cddd5bdU, 0xbcddd5bdbd1e7419U,
  0xbc7d868f3cfd868fU, 0x3b7d868f3c9e7419U, 0xbbfd868fU, 0x3cddd5bd00000000U,
  0x3c7d868fbcfd868fU, 0xbc9e74193d0e9bb0U, 0x3cddd5bdbcfd868fU, 0xbd2e4c823cfd868fU,
  0xbcddd5bdU, 0x3c3e24eb3c7d868fU, 0x3cbe24ebbd1e7419U, 0xbd2e4c82bb7d868fU,
  0xbcfd868fbcddd5bdU, 0xbc7d868f3d0e9bb0U, 0xbcfd868fbc3e24ebU, 0xbcbe24ebbd3e24ebU,
  0x3cbe24ebbbfd868fU, 0xbc3e24ebbc9e7419U, 0x3c3e24ebbc3e24ebU, 0x3cbe24eb3d1e7419U,
  0x3cbe24eb3d1e7419U, 0x3cddd5bdU, 0xbc7d868f3c9e7419U, 0xbc9e7419bc9e7419U,
  0xbd0e9bb0bd1e7419U, 0x3b7d868f3cfd868fU, 0x3cddd5bdbc3e24ebU, 0xbcfd868f3cddd5bdU,
  0xbc9e7419bbfd868fU, 0x3cbe24eb3d0e9bb0U, 0x3cddd5bdbb7d868fU, 0x3cfd868fU,
  0xbd1e7419bd0e9bb0U, 0x3cfd868f3b7d868fU, 0xbd1e74193cfd868fU, 0x3cddd5bd3c9e7419U,
  0x3cbe24eb3cddd5bdU, 0xbbfd868fbcddd5bdU, 0xbb7d868fbd2e4c82U, 0xbc3e24ebbcfd868fU,
  0xbbfd868fbc9e7419U, 0xbd2e4c82bd1e7419U, 0x3d0e9bb03d0e9bb0U, 0xbb7d868f3cbe24ebU,
  0x3c9e74193b7d868fU, 0x3bfd868f3cfd868fU, 0x3cbe24ebbd0e9bb0U, 0x3cddd5bd3bfd868fU,
